<unk>	0
<s>	0
</s>	0
<pad>	0
<CLS>	0
<SEP>	0
<EOD>	0
<MASK>	0

	0
<0x00>	0
<0x01>	0
<0x02>	0
<0x03>	0
<0x04>	0
<0x05>	0
<0x06>	0
<0x07>	0
<0x08>	0
<0x09>	0
<0x0A>	0
<0x0B>	0
<0x0C>	0
<0x0D>	0
<0x0E>	0
<0x0F>	0
<0x10>	0
<0x11>	0
<0x12>	0
<0x13>	0
<0x14>	0
<0x15>	0
<0x16>	0
<0x17>	0
<0x18>	0
<0x19>	0
<0x1A>	0
<0x1B>	0
<0x1C>	0
<0x1D>	0
<0x1E>	0
<0x1F>	0
<0x20>	0
<0x21>	0
<0x22>	0
<0x23>	0
<0x24>	0
<0x25>	0
<0x26>	0
<0x27>	0
<0x28>	0
<0x29>	0
<0x2A>	0
<0x2B>	0
<0x2C>	0
<0x2D>	0
<0x2E>	0
<0x2F>	0
<0x30>	0
<0x31>	0
<0x32>	0
<0x33>	0
<0x34>	0
<0x35>	0
<0x36>	0
<0x37>	0
<0x38>	0
<0x39>	0
<0x3A>	0
<0x3B>	0
<0x3C>	0
<0x3D>	0
<0x3E>	0
<0x3F>	0
<0x40>	0
<0x41>	0
<0x42>	0
<0x43>	0
<0x44>	0
<0x45>	0
<0x46>	0
<0x47>	0
<0x48>	0
<0x49>	0
<0x4A>	0
<0x4B>	0
<0x4C>	0
<0x4D>	0
<0x4E>	0
<0x4F>	0
<0x50>	0
<0x51>	0
<0x52>	0
<0x53>	0
<0x54>	0
<0x55>	0
<0x56>	0
<0x57>	0
<0x58>	0
<0x59>	0
<0x5A>	0
<0x5B>	0
<0x5C>	0
<0x5D>	0
<0x5E>	0
<0x5F>	0
<0x60>	0
<0x61>	0
<0x62>	0
<0x63>	0
<0x64>	0
<0x65>	0
<0x66>	0
<0x67>	0
<0x68>	0
<0x69>	0
<0x6A>	0
<0x6B>	0
<0x6C>	0
<0x6D>	0
<0x6E>	0
<0x6F>	0
<0x70>	0
<0x71>	0
<0x72>	0
<0x73>	0
<0x74>	0
<0x75>	0
<0x76>	0
<0x77>	0
<0x78>	0
<0x79>	0
<0x7A>	0
<0x7B>	0
<0x7C>	0
<0x7D>	0
<0x7E>	0
<0x7F>	0
<0x80>	0
<0x81>	0
<0x82>	0
<0x83>	0
<0x84>	0
<0x85>	0
<0x86>	0
<0x87>	0
<0x88>	0
<0x89>	0
<0x8A>	0
<0x8B>	0
<0x8C>	0
<0x8D>	0
<0x8E>	0
<0x8F>	0
<0x90>	0
<0x91>	0
<0x92>	0
<0x93>	0
<0x94>	0
<0x95>	0
<0x96>	0
<0x97>	0
<0x98>	0
<0x99>	0
<0x9A>	0
<0x9B>	0
<0x9C>	0
<0x9D>	0
<0x9E>	0
<0x9F>	0
<0xA0>	0
<0xA1>	0
<0xA2>	0
<0xA3>	0
<0xA4>	0
<0xA5>	0
<0xA6>	0
<0xA7>	0
<0xA8>	0
<0xA9>	0
<0xAA>	0
<0xAB>	0
<0xAC>	0
<0xAD>	0
<0xAE>	0
<0xAF>	0
<0xB0>	0
<0xB1>	0
<0xB2>	0
<0xB3>	0
<0xB4>	0
<0xB5>	0
<0xB6>	0
<0xB7>	0
<0xB8>	0
<0xB9>	0
<0xBA>	0
<0xBB>	0
<0xBC>	0
<0xBD>	0
<0xBE>	0
<0xBF>	0
<0xC0>	0
<0xC1>	0
<0xC2>	0
<0xC3>	0
<0xC4>	0
<0xC5>	0
<0xC6>	0
<0xC7>	0
<0xC8>	0
<0xC9>	0
<0xCA>	0
<0xCB>	0
<0xCC>	0
<0xCD>	0
<0xCE>	0
<0xCF>	0
<0xD0>	0
<0xD1>	0
<0xD2>	0
<0xD3>	0
<0xD4>	0
<0xD5>	0
<0xD6>	0
<0xD7>	0
<0xD8>	0
<0xD9>	0
<0xDA>	0
<0xDB>	0
<0xDC>	0
<0xDD>	0
<0xDE>	0
<0xDF>	0
<0xE0>	0
<0xE1>	0
<0xE2>	0
<0xE3>	0
<0xE4>	0
<0xE5>	0
<0xE6>	0
<0xE7>	0
<0xE8>	0
<0xE9>	0
<0xEA>	0
<0xEB>	0
<0xEC>	0
<0xED>	0
<0xEE>	0
<0xEF>	0
<0xF0>	0
<0xF1>	0
<0xF2>	0
<0xF3>	0
<0xF4>	0
<0xF5>	0
<0xF6>	0
<0xF7>	0
<0xF8>	0
<0xF9>	0
<0xFA>	0
<0xFB>	0
<0xFC>	0
<0xFD>	0
<0xFE>	0
<0xFF>	0
▁t	-0
▁a	-1
he	-2
in	-3
re	-4
▁o	-5
▁the	-6
er	-7
▁s	-8
▁w	-9
on	-10
at	-11
it	-12
nd	-13
or	-14
▁f	-15
ou	-16
ing	-17
▁c	-18
▁b	-19
is	-20
en	-21
es	-22
▁p	-23
▁to	-24
an	-25
ed	-26
ar	-27
ll	-28
▁of	-29
▁m	-30
▁and	-31
▁in	-32
as	-33
om	-34
ic	-35
▁h	-36
▁d	-37
▁th	-38
le	-39
al	-40
▁I	-41
ion	-42
▁S	-43
ent	-44
▁l	-45
ve	-46
▁T	-47
st	-48
▁g	-49
▁on	-50
ay	-51
ut	-52
▁A	-53
▁e	-54
▁n	-55
▁C	-56
ad	-57
ac	-58
▁re	-59
▁be	-60
ow	-61
▁y	-62
▁for	-63
ig	-64
ur	-65
id	-66
ot	-67
se	-68
▁it	-69
▁is	-70
ver	-71
ro	-72
il	-73
am	-74
et	-75
ec	-76
▁M	-77
ith	-78
▁st	-79
im	-80
ir	-81
▁that	-82
▁B	-83
▁u	-84
ill	-85
▁you	-86
▁with	-87
▁H	-88
▁P	-89
te	-90
ce	-91
oo	-92
▁D	-93
ch	-94
▁W	-95
ation	-96
ly	-97
▁we	-98
▁L	-99
ak	-100
▁at	-101
all	-102
ew	-103
▁he	-104
ter	-105
▁F	-106
ers	-107
▁R	-108
ave	-109
ld	-110
▁N	-111
▁fr	-112
and	-113
ap	-114
ist	-115
xt	-116
▁as	-117
▁an	-118
el	-119
ht	-120
op	-121
ag	-122
res	-123
th	-124
our	-125
▁con	-126
▁wh	-127
est	-128
▁The	-129
▁com	-130
ri	-131
▁my	-132
▁was	-133
..	-134
ol	-135
em	-136
ul	-137
ore	-138
▁are	-139
if	-140
▁this	-141
\"	-142
um	-143
▁pro	-144
▁from	-145
▁se	-146
text	-147
ct	-148
▁"	-149
her	-150
":	-151
{"	-152
▁{"	-153
"}	-154
▁or	-155
▁v	-156
ack	-157
ess	-158
ight	-159
▁O	-160
os	-161
▁r	-162
▁ex	-163
▁E	-164
▁al	-165
nt	-166
ect	-167
▁G	-168
ear	-169
oc	-170
us	-171
▁(	-172
ast	-173
ort	-174
▁have	-175
ud	-176
ate	-177
ome	-178
out	-179
ment	-180
ab	-181
ure	-182
▁can	-183
ide	-184
ust	-185
▁ab	-186
▁but	-187
▁will	-188
ke	-189
art	-190
ally	-191
pl	-192
ime	-193
▁le	-194
▁pl	-195
un	-196
The	-197
ine	-198
ook	-199
▁wor	-200
ie	-201
▁Y	-202
ity	-203
ive	-204
per	-205
iv	-206
ies	-207
__	-208
ant	-209
▁by	-210
▁sh	-211
ard	-212
▁J	-213
ost	-214
irst	-215
og	-216
ain	-217
ake	-218
▁up	-219
qu	-220
▁Th	-221
▁all	-222
hen	-223
▁sp	-224
ould	-225
▁out	-226
▁they	-227
ib	-228
ong	-229
ep	-230
rou	-231
ood	-232
ous	-233
▁first	-234
ub	-235
ial	-236
▁do	-237
▁his	-238
ike	-239
▁us	-240
▁not	-241
ge	-242
ip	-243
▁“	-244
ated	-245
▁time	-246
ice	-247
▁ne	-248
▁so	-249
▁tr	-250
ents	-251
▁new	-252
▁about	-253
cc	-254
▁ch	-255
▁fe	-256
▁int	-257
gh	-258
oll	-259
▁Re	-260
▁me	-261
▁more	-262
ans	-263
ite	-264
one	-265
own	-266
port	-267
very	-268
▁your	-269
▁j	-270
ber	-271
day	-272
▁go	-273
able	-274
▁our	-275
▁year	-276
ail	-277
ary	-278
ther	-279
▁U	-280
...	-281
for	-282
▁su	-283
ance	-284
king	-285
▁off	-286
▁one	-287
▁like	-288
▁some	-289
au	-290
ks	-291
ere	-292
ich	-293
iew	-294
ind	-295
ove	-296
ree	-297
▁Ch	-298
▁en	-299
ount	-300
▁has	-301
▁its	-302
▁We	-303
▁\"	-304
ence	-305
ions	-306
ry	-307
▁k	-308
age	-309
▁St	-310
▁ser	-311
act	-312
are	-313
ays	-314
ign	-315
ish	-316
rit	-317
▁bas	-318
▁her	-319
av	-320
ick	-321
▁cont	-322
▁over	-323
ff	-324
▁K	-325
ame	-326
▁ad	-327
▁ph	-328
▁sc	-329
▁You	-330
▁when	-331
▁their	-332
▁V	-333
ade	-334
ass	-335
ond	-336
ord	-337
ult	-338
▁cl	-339
reat	-340
ress	-341
▁any	-342
so	-343
ue	-344
▁$	-345
▁|	-346
ory	-347
rap	-348
here	-349
view	-350
▁who	-351
▁comp	-352
▁part	-353
▁would	-354
ia	-355
▁–	-356
any	-357
ase	-358
ire	-359
mer	-360
▁In	-361
▁qu	-362
____	-363
form	-364
nder	-365
▁were	-366
▁inter	-367
oy	-368
uc	-369
ace	-370
tle	-371
ical	-372
ious	-373
▁get	-374
▁inc	-375
▁into	-376
▁them	-377
pp	-378
."}	-379
amp	-380
ark	-381
ors	-382
▁It	-383
▁Sh	-384
▁de	-385
▁ev	-386
▁ro	-387
ject	-388
ound	-389
▁act	-390
▁see	-391
▁also	-392
▁other	-393
iz	-394
▁gr	-395
ning	-396
▁too	-397
▁been	-398
▁just	-399
▁which	-400
▁‘	-401
now	-402
vel	-403
▁ar	-404
▁im	-405
uring	-406
ng	-407
ra	-408
sh	-409
ons	-410
use	-411
▁To	-412
▁ag	-413
▁if	-414
▁te	-415
▁un	-416
atch	-417
hing	-418
raph	-419
▁All	-420
▁tri	-421
ident	-422
▁stud	-423
▁really	-424
lp	-425
od	-426
we	-427
eck	-428
ert	-429
ilm	-430
▁Ad	-431
▁op	-432
ates	-433
vers	-434
aking	-435
▁back	-436
▁phot	-437
ek	-438
ov	-439
▁-	-440
igh	-441
ink	-442
ino	-443
joy	-444
lud	-445
sel	-446
▁Le	-447
▁bl	-448
▁br	-449
ures	-450
▁Com	-451
▁cre	-452
▁pre	-453
round	-454
▁inform	-455
aid	-456
ars	-457
ict	-458
▁don	-459
▁had	-460
▁set	-461
▁str	-462
ating	-463
ience	-464
rough	-465
▁conf	-466
▁down	-467
▁lead	-468
▁need	-469
▁only	-470
anders	-471
▁report	-472
▁project	-473
▁information	-474
Th	-475
pt	-476
ty	-477
wn	-478
xx	-479
▁[	-480
com	-481
ght	-482
ise	-483
iss	-484
nce	-485
ool	-486
red	-487
uch	-488
▁An	-489
▁Cl	-490
▁Do	-491
▁aw	-492
▁pr	-493
line	-494
▁des	-495
▁how	-496
useum	-497
▁cour	-498
▁food	-499
▁last	-500
▁look	-501
▁than	-502
▁what	-503
▁work	-504
▁includ	-505
▁through	-506
uy	-507
ang	-508
ath	-509
ful	-510
ife	-511
ile	-512
int	-513
its	-514
ubl	-515
▁Bl	-516
▁He	-517
▁em	-518
fter	-519
ideo	-520
ouse	-521
▁per	-522
▁res	-523
▁sec	-524
asino	-525
ollow	-526
▁Have	-527
▁hist	-528
▁read	-529
▁Night	-530
▁basil	-531
▁there	-532
▁under	-533
▁Sanders	-534
On	-535
gr	-536
ob	-537
▁Q	-538
oth	-539
▁Co	-540
▁Ma	-541
▁Sp	-542
▁am	-543
fore	-544
ings	-545
omet	-546
read	-547
self	-548
tend	-549
▁New	-550
▁Sar	-551
▁bec	-552
▁did	-553
▁few	-554
▁spe	-555
▁way	-556
ittle	-557
▁This	-558
▁best	-559
▁book	-560
▁even	-561
▁good	-562
▁mill	-563
▁much	-564
▁pres	-565
▁said	-566
▁song	-567
▁very	-568
▁want	-569
ograph	-570
▁every	-571
▁exper	-572
▁where	-573
▁Museum	-574
▁students	-575
We	-576
ck	-577
ach	-578
arn	-579
enc	-580
ens	-581
hed	-582
ics	-583
uct	-584
▁Ro	-585
▁Tr	-586
ands	-587
ange	-588
avel	-589
▁acc	-590
▁cur	-591
▁day	-592
▁ple	-593
▁she	-594
ition	-595
▁comm	-596
▁help	-597
▁pers	-598
▁tour	-599
▁writ	-600
▁Dance	-601
▁offic	-602
▁still	-603
In	-604
su	-605
alk	-606
als	-607
ann	-608
ock	-609
ose	-610
urt	-611
van	-612
anac	-613
ever	-614
ower	-615
rest	-616
▁him	-617
▁now	-618
▁own	-619
meric	-620
▁film	-621
▁inte	-622
▁know	-623
▁line	-624
▁list	-625
▁love	-626
▁make	-627
▁prov	-628
▁sent	-629
▁sing	-630
ountry	-631
▁could	-632
▁great	-633
▁start	-634
▁world	-635
▁follow	-636
▁Saranac	-637
▁million	-638
az	-639
up	-640
els	-641
ism	-642
led	-643
let	-644
ont	-645
▁Qu	-646
▁gl	-647
▁pe	-648
akes	-649
ater	-650
ause	-651
onus	-652
ough	-653
vice	-654
ward	-655
▁bet	-656
▁dec	-657
▁dis	-658
▁ear	-659
▁loc	-660
▁may	-661
▁rec	-662
ments	-663
ublic	-664
▁Beck	-665
▁Lake	-666
▁days	-667
▁find	-668
▁made	-669
▁most	-670
▁open	-671
▁seem	-672
ations	-673
erence	-674
▁enjoy	-675
▁these	-676
▁years	-677
▁Americ	-678
▁before	-679
________	-680
▁photograph	-681
XX	-682
be	-683
ft	-684
yy	-685
▁&	-686
▁·	-687
gan	-688
hib	-689
ian	-690
ier	-691
lex	-692
low	-693
ork	-694
ple	-695
ull	-696
und	-697
▁On	-698
▁Wh	-699
▁co	-700
▁no	-701
▁sy	-702
arch	-703
book	-704
ince	-705
isit	-706
ople	-707
pect	-708
ries	-709
ular	-710
▁But	-711
▁For	-712
▁May	-713
▁War	-714
▁fin	-715
▁inv	-716
▁par	-717
▁pos	-718
▁put	-719
▁say	-720
irect	-721
ities	-722
ought	-723
ually	-724
▁Room	-725
▁That	-726
▁both	-727
▁coll	-728
▁feat	-729
▁feel	-730
▁many	-731
▁real	-732
▁rece	-733
▁trip	-734
▁well	-735
▁press	-736
▁think	-737
▁video	-738
ailable	-739
▁attend	-740
▁little	-741
▁people	-742
▁interest	-743
▁interview	-744
▁experience	-745
.”	-746
bs	-747
co	-748
ey	-749
ik	-750
io	-751
lo	-752
ug	-753
.\"	-754
ama	-755
ank	-756
elf	-757
ild	-758
ily	-759
les	-760
ope	-761
ped	-762
ren	-763
son	-764
ues	-765
urn	-766
ute	-767
wit	-768
▁As	-769
▁Of	-770
▁Sc	-771
▁Se	-772
▁av	-773
▁ed	-774
▁po	-775
ered	-776
ines	-777
lect	-778
oric	-779
ream	-780
ting	-781
ving	-782
▁Ann	-783
▁Aut	-784
▁app	-785
▁att	-786
▁big	-787
▁dra	-788
▁min	-789
▁mon	-790
▁pan	-791
▁rel	-792
▁top	-793
ative	-794
ccess	-795
hibit	-796
other	-797
stand	-798
thing	-799
velop	-800
▁Hill	-801
▁call	-802
▁come	-803
▁ever	-804
▁expl	-805
▁high	-806
▁home	-807
▁kind	-808
▁plac	-809
▁post	-810
▁prod	-811
▁show	-812
▁stop	-813
▁take	-814
▁vers	-815
▁found	-816
▁going	-817
▁organ	-818
▁around	-819
▁design	-820
▁series	-821
urturing	-822
▁company	-823
▁exhibit	-824
▁available	-825
).	-826
It	-827
ah	-828
air	-829
ane	-830
app	-831
cri	-832
eat	-833
ech	-834
ets	-835
gin	-836
hes	-837
iff	-838
rew	-839
ten	-840
▁Al	-841
▁De	-842
▁Ex	-843
▁cr	-844
anks	-845
ares	-846
ible	-847
ided	-848
ists	-849
ling	-850
mper	-851
rent	-852
ween	-853
▁add	-854
▁ass	-855
▁che	-856
▁det	-857
▁end	-858
▁ent	-859
▁got	-860
▁sch	-861
▁use	-862
aying	-863
ering	-864
onard	-865
unity	-866
veral	-867
▁Comm	-868
▁conc	-869
▁cons	-870
▁does	-871
▁next	-872
▁page	-873
▁pass	-874
▁such	-875
▁week	-876
ession	-877
▁along	-878
▁learn	-879
▁three	-880
▁young	-881
ational	-882
mperial	-883
▁Casino	-884
▁course	-885
▁myself	-886
▁partic	-887
▁person	-888
▁please	-889
omething	-890
▁because	-891
▁organiz	-892
▁several	-893
▁version	-894
,”	-895
.,	-896
EA	-897
If	-898
Sp	-899
br	-900
apt	-901
ash	-902
aut	-903
ble	-904
ced	-905
ces	-906
ead	-907
enn	-908
ery	-909
ged	-910
net	-911
old	-912
orn	-913
oun	-914
ral	-915
tem	-916
▁Br	-917
▁Fr	-918
▁Gl	-919
▁Mi	-920
▁So	-921
▁bu	-922
aign	-923
ased	-924
gram	-925
hood	-926
iend	-927
mall	-928
ners	-929
outh	-930
ovic	-931
rist	-932
ured	-933
▁...	-934
▁And	-935
▁Shi	-936
▁art	-937
▁del	-938
▁hum	-939
▁lot	-940
▁sub	-941
▁sum	-942
▁wee	-943
ading	-944
arket	-945
epper	-946
▁Ivan	-947
▁band	-948
▁didn	-949
▁form	-950
▁rele	-951
▁self	-952
▁sure	-953
▁wond	-954
▁word	-955
Online	-956
ulture	-957
witter	-958
▁Cohen	-959
▁after	-960
▁again	-961
▁local	-962
▁month	-963
▁today	-964
▁visit	-965
ampaign	-966
▁friend	-967
▁single	-968
▁things	-969
▁Leonard	-970
▁created	-971
▁current	-972
▁service	-973
velopment	-974
▁Ivanovic	-975
▁including	-976
▁president	-977
▁conference	-978
CO	-979
ER	-980
ax	-981
gy	-982
ij	-983
ix	-984
ky	-985
ux	-986
yp	-987
▁'	-988
You	-989
bum	-990
eak	-991
ell	-992
ene	-993
irm	-994
orp	-995
ric	-996
rod	-997
rop	-998
ual	-999
▁Ph	-1000
▁Pr	-1001
▁ac	-1002
▁gu	-1003
▁sl	-1004
Camp	-1005
This	-1006
ages	-1007
alth	-1008
ames	-1009
arge	-1010
ator	-1011
bama	-1012
ging	-1013
ials	-1014
ield	-1015
ighb	-1016
ijst	-1017
imes	-1018
inal	-1019
istr	-1020
ives	-1021
ours	-1022
reak	-1023
stem	-1024
ways	-1025
▁Tsu	-1026
▁col	-1027
▁cut	-1028
▁fam	-1029
▁let	-1030
▁mor	-1031
▁old	-1032
▁pur	-1033
▁reg	-1034
▁sur	-1035
▁vol	-1036
▁wom	-1037
ather	-1038
atter	-1039
ecial	-1040
ember	-1041
ially	-1042
iving	-1043
▁Post	-1044
▁Your	-1045
▁away	-1046
▁clos	-1047
▁diff	-1048
▁each	-1049
▁four	-1050
▁free	-1051
▁give	-1052
▁grou	-1053
▁head	-1054
▁life	-1055
▁news	-1056
▁plan	-1057
▁pret	-1058
▁site	-1059
▁team	-1060
▁took	-1061
▁used	-1062
ection	-1063
ention	-1064
onuses	-1065
▁Black	-1066
▁House	-1067
▁allow	-1068
▁beaut	-1069
▁begin	-1070
▁email	-1071
▁later	-1072
▁place	-1073
▁quest	-1074
▁quick	-1075
▁right	-1076
▁since	-1077
▁table	-1078
▁those	-1079
acebook	-1080
ijsters	-1081
ivities	-1082
▁Autism	-1083
▁Travel	-1084
▁detail	-1085
▁public	-1086
▁school	-1087
▁taking	-1088
▁wonder	-1089
▁America	-1090
▁Twitter	-1091
▁contact	-1092
▁history	-1093
▁looking	-1094
▁program	-1095
▁thought	-1096
▁writing	-1097
▁actually	-1098
▁Clijsters	-1099
▁understand	-1100
!!	-1101
PS	-1102
lm	-1103
ok	-1104
▁Z	-1105
▁—	-1106
,\"	-1107
For	-1108
ags	-1109
ait	-1110
ale	-1111
ape	-1112
arm	-1113
arr	-1114
emb	-1115
end	-1116
erv	-1117
ibr	-1118
ied	-1119
ift	-1120
inc	-1121
man	-1122
mon	-1123
orm	-1124
ret	-1125
uly	-1126
urs	-1127
ush	-1128
ven	-1129
vis	-1130
wor	-1131
▁Be	-1132
▁DC	-1133
▁Jo	-1134
▁No	-1135
▁dr	-1136
▁tw	-1137
▁wr	-1138
aden	-1139
ason	-1140
avor	-1141
cess	-1142
ense	-1143
eral	-1144
gest	-1145
ices	-1146
iews	-1147
ited	-1148
load	-1149
olic	-1150
olid	-1151
ping	-1152
plos	-1153
urch	-1154
usic	-1155
usin	-1156
uter	-1157
vent	-1158
vern	-1159
▁Acc	-1160
▁Ind	-1161
▁Now	-1162
▁Pop	-1163
▁She	-1164
▁cle	-1165
▁log	-1166
▁man	-1167
▁mom	-1168
▁pop	-1169
▁sim	-1170
▁upd	-1171
aCamp	-1172
akers	-1173
ement	-1174
ilent	-1175
ivers	-1176
light	-1177
ocial	-1178
sible	-1179
unday	-1180
▁Cent	-1181
▁Film	-1182
▁Hist	-1183
▁Just	-1184
▁draw	-1185
▁educ	-1186
▁fall	-1187
▁fish	-1188
▁full	-1189
▁game	-1190
▁here	-1191
▁inst	-1192
▁must	-1193
▁nice	-1194
▁walk	-1195
▁wasn	-1196
ertain	-1197
hether	-1198
ibrary	-1199
ically	-1200
inking	-1201
▁Young	-1202
▁below	-1203
▁count	-1204
▁court	-1205
▁early	-1206
▁invol	-1207
▁makes	-1208
▁night	-1209
▁plans	-1210
▁point	-1211
▁power	-1212
▁views	-1213
▁watch	-1214
plosion	-1215
usiness	-1216
▁Christ	-1217
▁Review	-1218
▁always	-1219
▁family	-1220
▁govern	-1221
▁panels	-1222
▁pepper	-1223
▁places	-1224
▁pretty	-1225
▁second	-1226
▁summer	-1227
▁system	-1228
velation	-1229
▁Bonuses	-1230
▁another	-1231
▁between	-1232
▁country	-1233
▁enjoyed	-1234
▁forward	-1235
▁success	-1236
▁without	-1237
▁working	-1238
▁campaign	-1239
▁sentence	-1240
▁following	-1241
▁something	-1242
▁everything	-1243
▁government	-1244
▁photographs	-1245
.)	-1246
CH	-1247
ES	-1248
IO	-1249
PO	-1250
aw	-1251
by	-1252
ns	-1253
ts	-1254
yn	-1255
▁@	-1256
acy	-1257
alf	-1258
amm	-1259
aps	-1260
ata	-1261
ayl	-1262
bes	-1263
der	-1264
ees	-1265
ege	-1266
ese	-1267
gre	-1268
ids	-1269
ins	-1270
oci	-1271
oil	-1272
pos	-1273
pro	-1274
riv	-1275
ton	-1276
ube	-1277
uck	-1278
vip	-1279
voc	-1280
way	-1281
yyy	-1282
▁Ar	-1283
▁At	-1284
▁If	-1285
▁Or	-1286
▁Pl	-1287
▁Te	-1288
▁er	-1289
▁ke	-1290
▁sk	-1291
▁xx	-1292
...]	-1293
acks	-1294
ants	-1295
apan	-1296
appy	-1297
atur	-1298
augh	-1299
avid	-1300
ency	-1301
ford	-1302
ient	-1303
inaz	-1304
ined	-1305
ites	-1306
ived	-1307
less	-1308
most	-1309
ntil	-1310
ompl	-1311
oose	-1312
osit	-1313
plic	-1314
reen	-1315
ring	-1316
ship	-1317
ters	-1318
ucts	-1319
▁Bas	-1320
▁Big	-1321
▁Day	-1322
▁Inc	-1323
▁Mar	-1324
▁Oct	-1325
▁Off	-1326
▁Sch	-1327
▁Sep	-1328
▁abs	-1329
▁bro	-1330
▁cop	-1331
▁eas	-1332
▁fun	-1333
▁guy	-1334
▁hit	-1335
▁isn	-1336
▁med	-1337
▁mil	-1338
▁ran	-1339
▁rem	-1340
▁rep	-1341
▁ret	-1342
▁run	-1343
▁thr	-1344
▁tou	-1345
▁try	-1346
assic	-1347
atory	-1348
aylor	-1349
cover	-1350
estig	-1351
ility	-1352
ional	-1353
isjoy	-1354
ories	-1355
oring	-1356
urity	-1357
vipac	-1358
▁Cath	-1359
▁Cont	-1360
▁Feat	-1361
▁Free	-1362
▁July	-1363
▁Miss	-1364
▁Then	-1365
▁They	-1366
▁Tour	-1367
▁With	-1368
▁Word	-1369
▁York	-1370
▁arch	-1371
▁beer	-1372
▁capt	-1373
▁data	-1374
▁done	-1375
▁exam	-1376
▁fans	-1377
▁fast	-1378
▁fell	-1379
▁hand	-1380
▁hard	-1381
▁helm	-1382
▁oper	-1383
▁play	-1384
▁prof	-1385
▁rese	-1386
▁rest	-1387
▁says	-1388
▁sess	-1389
▁talk	-1390
▁then	-1391
▁wait	-1392
▁xxxx	-1393
Casino	-1394
Silent	-1395
coming	-1396
ighbor	-1397
ildren	-1398
ording	-1399
uxford	-1400
▁First	-1401
▁Glenn	-1402
▁Obama	-1403
▁album	-1404
▁being	-1405
▁creat	-1406
▁doing	-1407
▁games	-1408
▁group	-1409
▁large	-1410
▁might	-1411
▁music	-1412
▁never	-1413
▁often	-1414
▁share	-1415
▁short	-1416
▁small	-1417
▁spent	-1418
▁thing	-1419
▁using	-1420
▁while	-1421
▁write	-1422
ictures	-1423
lection	-1424
▁Quinaz	-1425
▁almost	-1426
▁appear	-1427
▁direct	-1428
▁market	-1429
▁seemed	-1430
▁travel	-1431
arrative	-1432
lexisjoy	-1433
resident	-1434
▁Accompl	-1435
▁Library	-1436
▁comment	-1437
▁getting	-1438
▁learned	-1439
▁morning	-1440
▁provide	-1441
▁quickly	-1442
vipaccess	-1443
▁Comments	-1444
▁Facebook	-1445
▁Imperial	-1446
▁download	-1447
▁features	-1448
▁reported	-1449
▁research	-1450
▁security	-1451
▁sessions	-1452
▁upcoming	-1453
ighborhood	-1454
▁Explosion	-1455
▁community	-1456
▁nurturing	-1457
▁operation	-1458
▁Revelation	-1459
▁development	-1460
▁interesting	-1461
________________	-1462
lexisjoyvipaccess	-1463
Ad	-1464
Al	-1465
As	-1466
DS	-1467
EO	-1468
No	-1469
Oh	-1470
So	-1471
Wh	-1472
mb	-1473
mp	-1474
of	-1475
ph	-1476
pr	-1477
to	-1478
zz	-1479
▁/	-1480
And	-1481
NES	-1482
OPS	-1483
One	-1484
aho	-1485
aim	-1486
amb	-1487
anc	-1488
arg	-1489
att	-1490
edn	-1491
ele	-1492
elt	-1493
ges	-1494
ibb	-1495
iec	-1496
ify	-1497
ird	-1498
irl	-1499
lie	-1500
oin	-1501
ots	-1502
ows	-1503
str	-1504
ted	-1505
the	-1506
udd	-1507
ved	-1508
ves	-1509
viv	-1510
▁--	-1511
▁Ed	-1512
▁Me	-1513
▁NY	-1514
▁Ne	-1515
▁Ri	-1516
▁Sy	-1517
▁Un	-1518
▁el	-1519
▁fl	-1520
▁ir	-1521
▁lo	-1522
▁ob	-1523
ERIO	-1524
Post	-1525
Spot	-1526
acts	-1527
ains	-1528
aker	-1529
alls	-1530
amer	-1531
aron	-1532
ases	-1533
aunt	-1534
back	-1535
cast	-1536
cher	-1537
eted	-1538
greg	-1539
ider	-1540
ilar	-1541
ille	-1542
illy	-1543
iven	-1544
lier	-1545
ober	-1546
olut	-1547
ones	-1548
ovel	-1549
play	-1550
ples	-1551
plim	-1552
rive	-1553
scri	-1554
unch	-1555
unte	-1556
utes	-1557
▁Alp	-1558
▁App	-1559
▁Eur	-1560
▁Guy	-1561
▁How	-1562
▁Hub	-1563
▁Joh	-1564
▁Mon	-1565
▁Per	-1566
▁Ste	-1567
▁Top	-1568
▁Wor	-1569
▁adm	-1570
▁ago	-1571
▁ann	-1572
▁bad	-1573
▁buy	-1574
▁dep	-1575
▁eff	-1576
▁exc	-1577
▁fac	-1578
▁far	-1579
▁gen	-1580
▁hav	-1581
▁hon	-1582
▁ide	-1583
▁ind	-1584
▁lik	-1585
▁net	-1586
▁num	-1587
▁pay	-1588
▁ref	-1589
▁sem	-1590
▁tit	-1591
▁web	-1592
▁win	-1593
NESCO	-1594
Press	-1595
ached	-1596
aling	-1597
anger	-1598
aring	-1599
ately	-1600
attle	-1601
aught	-1602
ednes	-1603
ences	-1604
esign	-1605
esome	-1606
ester	-1607
ideos	-1608
ights	-1609
ivity	-1610
orest	-1611
quire	-1612
▁Bert	-1613
▁Brit	-1614
▁City	-1615
▁Gibb	-1616
▁Hack	-1617
▁Life	-1618
▁News	-1619
▁Priv	-1620
▁Rock	-1621
▁Song	-1622
▁Stud	-1623
▁Town	-1624
▁Well	-1625
▁able	-1626
▁area	-1627
▁blog	-1628
▁care	-1629
▁case	-1630
▁cent	-1631
▁city	-1632
▁feed	-1633
▁half	-1634
▁item	-1635
▁keep	-1636
▁less	-1637
▁live	-1638
▁memb	-1639
▁miss	-1640
▁name	-1641
▁orig	-1642
▁past	-1643
▁rock	-1644
▁room	-1645
▁scen	-1646
▁seen	-1647
▁soon	-1648
▁stay	-1649
▁turn	-1650
▁went	-1651
ERIODS	-1652
agraph	-1653
alking	-1654
aunted	-1655
inally	-1656
iously	-1657
lement	-1658
orical	-1659
struct	-1660
though	-1661
uesday	-1662
▁After	-1663
▁David	-1664
▁Every	-1665
▁Light	-1666
▁March	-1667
▁Video	-1668
▁White	-1669
▁[...]	-1670
▁above	-1671
▁alone	-1672
▁catch	-1673
▁color	-1674
▁dream	-1675
▁front	-1676
▁given	-1677
▁happy	-1678
▁hours	-1679
▁house	-1680
▁human	-1681
▁least	-1682
▁lines	-1683
▁match	-1684
▁posit	-1685
▁price	-1686
▁range	-1687
▁ready	-1688
▁steak	-1689
▁story	-1690
▁times	-1691
▁until	-1692
▁weeks	-1693
▁whole	-1694
▁women	-1695
▁works	-1696
atterns	-1697
ousands	-1698
venture	-1699
▁Direct	-1700
▁Europe	-1701
▁Spring	-1702
▁Sunday	-1703
▁Taylor	-1704
▁beauty	-1705
▁better	-1706
▁coming	-1707
▁contin	-1708
▁helmet	-1709
▁import	-1710
▁making	-1711
▁office	-1712
▁record	-1713
▁result	-1714
▁review	-1715
▁social	-1716
▁strate	-1717
▁videos	-1718
ednesday	-1719
▁AdaCamp	-1720
▁Country	-1721
▁Duxford	-1722
▁Gibbons	-1723
▁HubSpot	-1724
▁October	-1725
▁PERIODS	-1726
▁Science	-1727
▁awesome	-1728
▁certain	-1729
▁concert	-1730
▁confirm	-1731
▁congreg	-1732
▁culture	-1733
▁decided	-1734
▁details	-1735
▁earlier	-1736
▁however	-1737
▁members	-1738
▁minutes	-1739
▁perform	-1740
▁reading	-1741
▁reports	-1742
▁running	-1743
▁special	-1744
▁stopped	-1745
▁stories	-1746
▁volunte	-1747
▁whether	-1748
ationship	-1749
▁Catholic	-1750
▁Historic	-1751
▁business	-1752
▁computer	-1753
▁everyone	-1754
▁particip	-1755
▁possible	-1756
▁products	-1757
▁projects	-1758
▁Narrative	-1759
▁Nurturing	-1760
▁according	-1761
▁officials	-1762
▁paragraph	-1763
▁wonderful	-1764
▁historical	-1765
▁particular	-1766
▁congregation	-1767
.“	-1768
AS	-1769
Bl	-1770
Fr	-1771
ID	-1772
ND	-1773
SI	-1774
Sh	-1775
St	-1776
VE	-1777
aa	-1778
aq	-1779
ee	-1780
me	-1781
my	-1782
sc	-1783
uk	-1784
wh	-1785
yr	-1786
▁.	-1787
▁:	-1788
▁z	-1789
!"}	-1790
!\"	-1791
Aut	-1792
EAL	-1793
May	-1794
Now	-1795
Rel	-1796
ada	-1797
aff	-1798
asd	-1799
atc	-1800
avy	-1801
bru	-1802
cle	-1803
con	-1804
edy	-1805
ern	-1806
fit	-1807
hip	-1808
ief	-1809
imp	-1810
ipp	-1811
irc	-1812
mar	-1813
med	-1814
ner	-1815
ody	-1816
oln	-1817
omp	-1818
ony	-1819
orr	-1820
ote	-1821
que	-1822
ray	-1823
rip	-1824
tee	-1825
ude	-1826
uff	-1827
umb	-1828
ume	-1829
urb	-1830
usb	-1831
xas	-1832
you	-1833
▁Af	-1834
▁Fe	-1835
▁Ge	-1836
▁Oh	-1837
▁Sk	-1838
▁Sw	-1839
▁Us	-1840
▁XX	-1841
▁bo	-1842
▁cy	-1843
▁ic	-1844
Just	-1845
Tags	-1846
ahoe	-1847
aves	-1848
berg	-1849
bert	-1850
blem	-1851
bout	-1852
cept	-1853
echn	-1854
emor	-1855
haps	-1856
ians	-1857
ific	-1858
ills	-1859
irty	-1860
ital	-1861
lete	-1862
ming	-1863
ocus	-1864
olly	-1865
omew	-1866
ords	-1867
orse	-1868
osed	-1869
otes	-1870
ouri	-1871
oved	-1872
pril	-1873
reet	-1874
rica	-1875
room	-1876
side	-1877
uced	-1878
ulty	-1879
▁Adm	-1880
▁Bec	-1881
▁Can	-1882
▁Cat	-1883
▁Con	-1884
▁Cop	-1885
▁Fan	-1886
▁His	-1887
▁Jul	-1888
▁Kim	-1889
▁NYC	-1890
▁Rep	-1891
▁Sur	-1892
▁Was	-1893
▁Web	-1894
▁ask	-1895
▁aut	-1896
▁bit	-1897
▁bur	-1898
▁car	-1899
▁cou	-1900
▁dig	-1901
▁din	-1902
▁eit	-1903
▁ext	-1904
▁fan	-1905
▁fur	-1906
▁gas	-1907
▁obs	-1908
▁occ	-1909
▁six	-1910
▁sug	-1911
▁sup	-1912
▁ter	-1913
▁two	-1914
▁typ	-1915
▁var	-1916
▁won	-1917
Baden	-1918
There	-1919
advoc	-1920
ality	-1921
apter	-1922
asdaq	-1923
break	-1924
bsite	-1925
early	-1926
elebr	-1927
ening	-1928
ental	-1929
ented	-1930
field	-1931
ister	-1932
istic	-1933
itect	-1934
ittee	-1935
olute	-1936
omise	-1937
orpor	-1938
ounds	-1939
ports	-1940
press	-1941
ready	-1942
ustry	-1943
vices	-1944
wards	-1945
▁Aust	-1946
▁Cape	-1947
▁Even	-1948
▁Hear	-1949
▁Heck	-1950
▁John	-1951
▁Linc	-1952
▁Mark	-1953
▁More	-1954
▁Phil	-1955
▁SEAL	-1956
▁Time	-1957
▁XXXX	-1958
▁aren	-1959
▁brew	-1960
▁buzz	-1961
▁comb	-1962
▁cool	-1963
▁fair	-1964
▁fant	-1965
▁glue	-1966
▁grow	-1967
▁guys	-1968
▁hack	-1969
▁held	-1970
▁husb	-1971
▁imag	-1972
▁init	-1973
▁kids	-1974
▁main	-1975
▁meet	-1976
▁mess	-1977
▁move	-1978
▁park	-1979
▁pick	-1980
▁piec	-1981
▁resp	-1982
▁same	-1983
▁sell	-1984
▁sign	-1985
▁sort	-1986
▁step	-1987
▁supp	-1988
▁tell	-1989
▁town	-1990
▁wide	-1991
atever	-1992
bruary	-1993
inistr	-1994
scribe	-1995
uation	-1996
ursday	-1997
vanced	-1998
▁April	-1999
▁Basil	-2000
▁Brown	-2001
▁Great	-2002
▁Japan	-2003
▁South	-2004
▁Tahoe	-2005
▁There	-2006
▁World	-2007
▁agree	-2008
▁among	-2009
▁based	-2010
▁bring	-2011
▁build	-2012
▁camer	-2013
▁class	-2014
▁clear	-2015
▁comes	-2016
▁contr	-2017
▁delic	-2018
▁doesn	-2019
▁draft	-2020
▁exist	-2021
▁favor	-2022
▁grant	-2023
▁ident	-2024
▁items	-2025
▁leads	-2026
▁lemon	-2027
▁level	-2028
▁likes	-2029
▁manag	-2030
▁meant	-2031
▁novel	-2032
▁panel	-2033
▁relig	-2034
▁shows	-2035
▁solid	-2036
▁somew	-2037
▁speed	-2038
▁super	-2039
▁thank	-2040
▁tours	-2041
▁track	-2042
▁tried	-2043
▁worth	-2044
ambling	-2045
aughter	-2046
ination	-2047
olution	-2048
otlight	-2049
▁Africa	-2050
▁Battle	-2051
▁Design	-2052
▁Forbes	-2053
▁Justin	-2054
▁Little	-2055
▁States	-2056
▁Thanks	-2057
▁UNESCO	-2058
▁amount	-2059
▁associ	-2060
▁called	-2061
▁couple	-2062
▁create	-2063
▁diffic	-2064
▁during	-2065
▁either	-2066
▁health	-2067
▁intern	-2068
▁introd	-2069
▁minute	-2070
▁moment	-2071
▁needed	-2072
▁opport	-2073
▁passed	-2074
▁photos	-2075
▁placed	-2076
▁proper	-2077
▁purple	-2078
▁rather	-2079
▁scenes	-2080
▁season	-2081
▁shares	-2082
▁should	-2083
▁singer	-2084
▁strong	-2085
▁walked	-2086
▁within	-2087
▁writer	-2088
Imperial	-2089
iversity	-2090
▁Austral	-2091
▁Britain	-2092
▁Central	-2093
▁Classic	-2094
▁Element	-2095
▁Haunted	-2096
▁However	-2097
▁Lincoln	-2098
▁Private	-2099
▁account	-2100
▁collect	-2101
▁college	-2102
▁complim	-2103
▁content	-2104
▁feature	-2105
▁finding	-2106
▁further	-2107
▁general	-2108
▁husband	-2109
▁include	-2110
▁opening	-2111
▁playing	-2112
▁problem	-2113
▁reality	-2114
▁someone	-2115
▁started	-2116
▁strange	-2117
▁suggest	-2118
▁support	-2119
▁trading	-2120
▁usually	-2121
▁various	-2122
▁website	-2123
estigator	-2124
▁Missouri	-2125
▁absolute	-2126
▁children	-2127
▁complete	-2128
▁examples	-2129
▁historic	-2130
▁identify	-2131
▁industry	-2132
▁patterns	-2133
▁perspect	-2134
▁provided	-2135
▁released	-2136
▁semester	-2137
▁speakers	-2138
▁starting	-2139
▁strategy	-2140
▁thinking	-2141
▁visitors	-2142
▁Committee	-2143
▁President	-2144
▁architect	-2145
▁attendees	-2146
▁attention	-2147
▁countries	-2148
▁exploring	-2149
▁important	-2150
▁questions	-2151
▁thousands	-2152
▁Elementary	-2153
▁activities	-2154
▁profession	-2155
▁participate	-2156
▁photography	-2157
▁neighborhood	-2158
Alexisjoyvipaccess	-2159
),	-2160
)-	-2161
.(	-2162
.·	-2163
.’	-2164
AK	-2165
AL	-2166
AQ	-2167
BC	-2168
CL	-2169
Ch	-2170
Cl	-2171
DF	-2172
Dr	-2173
EU	-2174
EX	-2175
Ex	-2176
FL	-2177
IP	-2178
IS	-2179
My	-2180
OR	-2181
RA	-2182
Re	-2183
SA	-2184
SE	-2185
UR	-2186
cy	-2187
de	-2188
ds	-2189
ev	-2190
gs	-2191
ny	-2192
oa	-2193
zy	-2194
”.	-2195
▁?	-2196
▁X	-2197
▁x	-2198
▁’	-2199
)"}	-2200
,"}	-2201
ALR	-2202
ASD	-2203
Big	-2204
But	-2205
CLU	-2206
HER	-2207
How	-2208
IPA	-2209
Pro	-2210
Res	-2211
VID	-2212
Web	-2213
ady	-2214
aga	-2215
ago	-2216
agu	-2217
alc	-2218
aly	-2219
ams	-2220
amu	-2221
ari	-2222
asc	-2223
atr	-2224
ats	-2225
azz	-2226
bab	-2227
cci	-2228
che	-2229
cre	-2230
esy	-2231
eye	-2232
gag	-2233
get	-2234
hop	-2235
ias	-2236
igs	-2237
ina	-2238
iny	-2239
isp	-2240
ken	-2241
lem	-2242
ley	-2243
lus	-2244
mas	-2245
mit	-2246
new	-2247
not	-2248
ole	-2249
oss	-2250
rec	-2251
rib	-2252
ron	-2253
uce	-2254
yes	-2255
▁Gr	-2256
▁Ke	-2257
▁La	-2258
▁Mc	-2259
▁Op	-2260
▁Pa	-2261
▁Sl	-2262
▁Su	-2263
▁TV	-2264
▁ap	-2265
▁di	-2266
▁es	-2267
▁ge	-2268
▁hu	-2269
▁ra	-2270
▁sn	-2271
....	-2272
Free	-2273
Lake	-2274
NASD	-2275
SIVE	-2276
Then	-2277
Tube	-2278
What	-2279
abor	-2280
airs	-2281
aken	-2282
ales	-2283
alog	-2284
alue	-2285
anch	-2286
anna	-2287
anne	-2288
aper	-2289
ards	-2290
aren	-2291
arre	-2292
atte	-2293
cams	-2294
ched	-2295
ding	-2296
edia	-2297
emin	-2298
ergy	-2299
ests	-2300
etal	-2301
fect	-2302
ffee	-2303
fort	-2304
head	-2305
ibal	-2306
iday	-2307
iing	-2308
ikip	-2309
inks	-2310
irth	-2311
iver	-2312
ivid	-2313
ized	-2314
kend	-2315
land	-2316
mail	-2317
nect	-2318
ocum	-2319
oger	-2320
olog	-2321
omas	-2322
ooks	-2323
ores	-2324
orge	-2325
orth	-2326
oser	-2327
ourt	-2328
ramm	-2329
resh	-2330
rome	-2331
ster	-2332
sues	-2333
ucci	-2334
ully	-2335
unes	-2336
week	-2337
work	-2338
writ	-2339
year	-2340
▁Ana	-2341
▁Are	-2342
▁Aug	-2343
▁Ben	-2344
▁Bie	-2345
▁Coc	-2346
▁Dep	-2347
▁Die	-2348
▁Don	-2349
▁Ear	-2350
▁Ger	-2351
▁IPO	-2352
▁Kat	-2353
▁Les	-2354
▁Max	-2355
▁Min	-2356
▁NFL	-2357
▁Our	-2358
▁Ple	-2359
▁Pro	-2360
▁Rib	-2361
▁Seg	-2362
▁Ser	-2363
▁Tur	-2364
▁ack	-2365
▁age	-2366
▁aid	-2367
▁arr	-2368
▁dot	-2369
▁dou	-2370
▁emb	-2371
▁enc	-2372
▁est	-2373
▁fab	-2374
▁hom	-2375
▁hot	-2376
▁ice	-2377
▁job	-2378
▁lat	-2379
▁lim	-2380
▁mov	-2381
▁obl	-2382
▁pub	-2383
▁rap	-2384
▁scr	-2385
▁tie	-2386
▁tot	-2387
▁und	-2388
▁vac	-2389
▁voc	-2390
▁yet	-2391
After	-2392
Click	-2393
EXCLU	-2394
Under	-2395
VIDEO	-2396
about	-2397
aceut	-2398
acter	-2399
amuel	-2400
ander	-2401
anged	-2402
arger	-2403
arson	-2404
asing	-2405
bably	-2406
cript	-2407
earch	-2408
encer	-2409
eolid	-2410
erent	-2411
essed	-2412
gress	-2413
icago	-2414
icles	-2415
illed	-2416
illie	-2417
irond	-2418
ising	-2419
istry	-2420
itary	-2421
omers	-2422
ondon	-2423
opian	-2424
orner	-2425
ounce	-2426
pects	-2427
power	-2428
redit	-2429
tempt	-2430
ublis	-2431
views	-2432
ville	-2433
where	-2434
works	-2435
▁Adam	-2436
▁Alex	-2437
▁Best	-2438
▁Brig	-2439
▁Card	-2440
▁FOPS	-2441
▁Flet	-2442
▁Hann	-2443
▁Hard	-2444
▁Jagu	-2445
▁Lady	-2446
▁Lead	-2447
▁Love	-2448
▁Mich	-2449
▁Ohio	-2450
▁Part	-2451
▁Plan	-2452
▁Rand	-2453
▁Read	-2454
▁Real	-2455
▁Rich	-2456
▁Sept	-2457
▁Stat	-2458
▁Step	-2459
▁Than	-2460
▁UALR	-2461
▁VIPA	-2462
▁Wade	-2463
▁Week	-2464
▁When	-2465
▁Writ	-2466
▁Yout	-2467
▁base	-2468
▁bill	-2469
▁body	-2470
▁cake	-2471
▁cars	-2472
▁char	-2473
▁conv	-2474
▁copy	-2475
▁cust	-2476
▁deal	-2477
▁desp	-2478
▁drop	-2479
▁easy	-2480
▁edit	-2481
▁else	-2482
▁emph	-2483
▁fact	-2484
▁fasc	-2485
▁felt	-2486
▁fest	-2487
▁fill	-2488
▁gave	-2489
▁hear	-2490
▁hits	-2491
▁hope	-2492
▁idea	-2493
▁join	-2494
▁mean	-2495
▁plot	-2496
▁poor	-2497
▁roll	-2498
▁send	-2499
▁sens	-2500
▁side	-2501
▁skin	-2502
▁stre	-2503
▁stro	-2504
▁tall	-2505
▁test	-2506
▁text	-2507
▁told	-2508
▁trad	-2509
▁watc	-2510
▁whom	-2511
▁wine	-2512
▁wrap	-2513
▁zone	-2514
Autism	-2515
NASDAQ	-2516
Posted	-2517
Shares	-2518
aining	-2519
anging	-2520
arding	-2521
ensive	-2522
entary	-2523
ffairs	-2524
iansen	-2525
illage	-2526
illing	-2527
isturb	-2528
ledged	-2529
letter	-2530
odcast	-2531
ounced	-2532
ounted	-2533
ources	-2534
overed	-2535
selves	-2536
tember	-2537
▁Alpro	-2538
▁Faron	-2539
▁Frank	-2540
▁Horse	-2541
▁Never	-2542
▁Posit	-2543
▁Quint	-2544
▁Roger	-2545
▁Rooms	-2546
▁SEALs	-2547
▁Swift	-2548
▁Texas	-2549
▁Today	-2550
▁Under	-2551
▁Visit	-2552
▁Votes	-2553
▁While	-2554
▁Wikip	-2555
▁autom	-2556
▁belie	-2557
▁black	-2558
▁bonus	-2559
▁brain	-2560
▁break	-2561
▁breat	-2562
▁check	-2563
▁claim	-2564
▁cover	-2565
▁cream	-2566
▁dance	-2567
▁diary	-2568
▁drive	-2569
▁ended	-2570
▁enorm	-2571
▁field	-2572
▁final	-2573
▁focus	-2574
▁haven	-2575
▁heart	-2576
▁incre	-2577
▁lists	-2578
▁mouth	-2579
▁noted	-2580
▁numer	-2581
▁occas	-2582
▁offer	-2583
▁older	-2584
▁order	-2585
▁paper	-2586
▁parts	-2587
▁posts	-2588
▁pract	-2589
▁quite	-2590
▁revis	-2591
▁seems	-2592
▁serve	-2593
▁shame	-2594
▁space	-2595
▁stage	-2596
▁stuff	-2597
▁taken	-2598
▁takes	-2599
▁techn	-2600
▁touch	-2601
▁tract	-2602
▁white	-2603
▁woman	-2604
▁words	-2605
Related	-2606
aturday	-2607
eolidia	-2608
hington	-2609
ibility	-2610
istrict	-2611
itional	-2612
ization	-2613
ometime	-2614
playing	-2615
urchill	-2616
▁Before	-2617
▁Bieber	-2618
▁Forest	-2619
▁Friday	-2620
▁Living	-2621
▁London	-2622
▁Monday	-2623
▁Nasdaq	-2624
▁Online	-2625
▁Philip	-2626
▁Ribeye	-2627
▁Robert	-2628
▁Sports	-2629
▁Street	-2630
▁Surviv	-2631
▁United	-2632
▁Yorker	-2633
▁acknow	-2634
▁acting	-2635
▁applic	-2636
▁assist	-2637
▁became	-2638
▁become	-2639
▁bought	-2640
▁broken	-2641
▁butter	-2642
▁career	-2643
▁caught	-2644
▁celebr	-2645
▁center	-2646
▁closed	-2647
▁coffee	-2648
▁comedy	-2649
▁corner	-2650
▁corpor	-2651
▁danger	-2652
▁dreams	-2653
▁effort	-2654
▁energy	-2655
▁enough	-2656
▁entire	-2657
▁events	-2658
▁expect	-2659
▁finish	-2660
▁helped	-2661
▁images	-2662
▁interp	-2663
▁issues	-2664
▁latest	-2665
▁leaves	-2666
▁matter	-2667
▁nearly	-2668
▁online	-2669
▁propos	-2670
▁provid	-2671
▁reason	-2672
▁screen	-2673
▁settle	-2674
▁shorts	-2675
▁sooner	-2676
▁spread	-2677
▁titles	-2678
▁unless	-2679
▁volume	-2680
▁wouldn	-2681
armaceut	-2682
irondack	-2683
iversary	-2684
▁Chicago	-2685
▁Jaguars	-2686
▁Richard	-2687
▁Schramm	-2688
▁Special	-2689
▁Tuesday	-2690
▁YouTube	-2691
▁Youtube	-2692
▁already	-2693
▁attacks	-2694
▁beautif	-2695
▁cameras	-2696
▁excited	-2697
▁explain	-2698
▁friends	-2699
▁himself	-2700
▁initial	-2701
▁located	-2702
▁meeting	-2703
▁network	-2704
▁nothing	-2705
▁offices	-2706
▁parking	-2707
▁popular	-2708
▁quality	-2709
▁reached	-2710
▁regular	-2711
▁respons	-2712
▁sharing	-2713
▁towards	-2714
▁updated	-2715
▁waiting	-2716
▁weekend	-2717
▁younger	-2718
EXCLUSIVE	-2719
aboratory	-2720
▁American	-2721
▁Featured	-2722
▁February	-2723
▁Fletcher	-2724
▁Hannibal	-2725
▁Pictures	-2726
▁contents	-2727
▁courtesy	-2728
▁daughter	-2729
▁directly	-2730
▁included	-2731
▁internet	-2732
▁involved	-2733
▁partners	-2734
▁pictures	-2735
▁planning	-2736
▁positive	-2737
▁presents	-2738
▁question	-2739
▁received	-2740
▁receiver	-2741
▁services	-2742
▁supposed	-2743
▁surround	-2744
▁watching	-2745
▁Administr	-2746
▁Australia	-2747
▁Directory	-2748
▁September	-2749
▁Spotlight	-2750
▁VIPAccess	-2751
▁Wednesday	-2752
▁Wikipedia	-2753
▁WordPress	-2754
▁adventure	-2755
▁construct	-2756
▁continues	-2757
▁currently	-2758
▁customers	-2759
▁different	-2760
▁involving	-2761
▁sentences	-2762
▁subscribe	-2763
▁thrilling	-2764
▁Adirondack	-2765
▁Positivity	-2766
▁Washington	-2767
▁absolutely	-2768
▁associated	-2769
▁interested	-2770
▁management	-2771
▁officially	-2772
▁paragraphs	-2773
▁reflection	-2774
▁successful	-2775
armaceutical	-2776
▁Springfield	-2777
▁educational	-2778
▁opportunity	-2779
▁Christiansen	-2780
▁organization	-2781
▁perspectives	-2782
▁relationship	-2783
▁Administration	-2784
▁VIPAccessEXCLUSIVE	-2785
!)	-2786
)(	-2787
,’	-2788
.‘	-2789
?)	-2790
AC	-2791
AT	-2792
Am	-2793
BI	-2794
Be	-2795
EF	-2796
Fe	-2797
He	-2798
IM	-2799
Im	-2800
LL	-2801
La	-2802
MT	-2803
Mr	-2804
Ne	-2805
OL	-2806
ST	-2807
Sc	-2808
Tw	-2809
Us	-2810
]-	-2811
do	-2812
fs	-2813
go	-2814
hy	-2815
iT	-2816
ls	-2817
mm	-2818
mo	-2819
ms	-2820
ne	-2821
rd	-2822
rs	-2823
sw	-2824
tc	-2825
uf	-2826
xO	-2827
ye	-2828
?"}	-2829
Act	-2830
All	-2831
ORY	-2832
Pat	-2833
Wor	-2834
\",	-2835
]"}	-2836
abb	-2837
aic	-2838
ald	-2839
ani	-2840
arl	-2841
asy	-2842
bas	-2843
cus	-2844
ded	-2845
dle	-2846
eah	-2847
eed	-2848
elc	-2849
fed	-2850
fin	-2851
fun	-2852
ham	-2853
het	-2854
hol	-2855
hor	-2856
hot	-2857
igg	-2858
iol	-2859
ios	-2860
ips	-2861
itu	-2862
itz	-2863
ker	-2864
lee	-2865
len	-2866
ngl	-2867
ols	-2868
omb	-2869
omy	-2870
oot	-2871
org	-2872
osp	-2873
owd	-2874
pon	-2875
rad	-2876
rag	-2877
raw	-2878
rek	-2879
ria	-2880
rif	-2881
ris	-2882
roc	-2883
ror	-2884
ste	-2885
thi	-2886
uis	-2887
ura	-2888
ury	-2889
usy	-2890
yan	-2891
yth	-2892
▁"-	-2893
▁AI	-2894
▁AT	-2895
▁By	-2896
▁Cr	-2897
▁EP	-2898
▁Fl	-2899
ys	-2900
ogs	-2901
pec	-2902
une	-2903
ung	-2904
unk	-2905
▁Gu	-2906
▁HM	-2907
▁IR	-2908
▁IT	-2909
▁Is	-2910
▁Ni	-2911
▁Os	-2912
▁PM	-2913
▁RE	-2914
▁ST	-2915
▁Tw	-2916
▁Wr	-2917
▁YO	-2918
▁iT	-2919
▁kn	-2920
▁na	-2921
▁sw	-2922
Aime	-2923
Beck	-2924
Bert	-2925
Best	-2926
Blog	-2927
CHUR	-2928
Comp	-2929
Cont	-2930
From	-2931
Girl	-2932
Join	-2933
Like	-2934
List	-2935
Next	-2936
Phot	-2937
User	-2938
WHER	-2939
Your	-2940
adem	-2941
aled	-2942
andy	-2943
anig	-2944
ansl	-2945
anwh	-2946
aple	-2947
apon	-2948
arke	-2949
arol	-2950
arts	-2951
asin	-2952
asis	-2953
ball	-2954
cape	-2955
corn	-2956
cure	-2957
cuss	-2958
ecut	-2959
empl	-2960
fits	-2961
gent	-2962
gers	-2963
hand	-2964
heck	-2965
hens	-2966
hers	-2967
hops	-2968
iana	-2969
iced	-2970
icer	-2971
ides	-2972
iged	-2973
imer	-2974
ippi	-2975
ipts	-2976
ique	-2977
ircu	-2978
irit	-2979
ishe	-2980
isty	-2981
iter	-2982
ival	-2983
know	-2984
lden	-2985
lows	-2986
mbly	-2987
mbol	-2988
mour	-2989
nces	-2990
ntax	-2991
oget	-2992
ogue	-2993
oint	-2994
oker	-2995
okes	-2996
olar	-2997
olit	-2998
oman	-2999
Cr	-3000
AKE	-3001
hat	-3002
rol	-3003
yle	-3004
ype	-3005
▁Kn	-3006
▁UK	-3007
adio	-3008
erry	-3009
icks	-3010
kans	-3011
oice	-3012
onym	-3013
ored	-3014
ouds	-3015
pare	-3016
quip	-3017
raft	-3018
reci	-3019
reds	-3020
rely	-3021
rend	-3022
rian	-3023
rior	-3024
ript	-3025
road	-3026
sell	-3027
show	-3028
sust	-3029
that	-3030
ties	-3031
ucer	-3032
uddy	-3033
ules	-3034
uman	-3035
unny	-3036
ural	-3037
uren	-3038
urse	-3039
ustr	-3040
utor	-3041
verD	-3042
ware	-3043
wood	-3044
ying	-3045
ynam	-3046
yond	-3047
▁ABC	-3048
▁AEU	-3049
▁ALL	-3050
▁AND	-3051
▁Act	-3052
▁Ain	-3053
▁Air	-3054
▁Bal	-3055
▁CEO	-3056
▁Cal	-3057
▁Col	-3058
▁Def	-3059
▁Dom	-3060
▁Emp	-3061
▁Ent	-3062
▁Fin	-3063
▁GMT	-3064
▁Gap	-3065
▁Hot	-3066
▁Imp	-3067
▁Jin	-3068
▁Jon	-3069
▁Ken	-3070
▁Man	-3071
▁Mit	-3072
▁Opt	-3073
▁PDF	-3074
▁Pal	-3075
▁Pre	-3076
▁Red	-3077
▁Rel	-3078
▁Res	-3079
▁Ret	-3080
▁Rev	-3081
▁Rus	-3082
▁San	-3083
▁Sen	-3084
▁Set	-3085
▁Sim	-3086
▁Tag	-3087
▁Way	-3088
▁Win	-3089
▁air	-3090
▁bar	-3091
▁beh	-3092
▁bel	-3093
▁ber	-3094
▁bon	-3095
▁bot	-3096
▁box	-3097
▁boy	-3098
▁dem	-3099
HM	-3100
OT	-3101
ha	-3102
EAS	-3103
REA	-3104
Rec	-3105
iod	-3106
ize	-3107
sey	-3108
sue	-3109
Fred	-3110
That	-3111
aked	-3112
apsh	-3113
asks	-3114
auce	-3115
icle	-3116
obby	-3117
oney	-3118
pped	-3119
weet	-3120
wise	-3121
▁ant	-3122
▁dro	-3123
▁dry	-3124
▁due	-3125
▁ele	-3126
▁ess	-3127
▁etc	-3128
▁fed	-3129
▁fig	-3130
▁fil	-3131
▁flo	-3132
▁fre	-3133
▁fru	-3134
▁fut	-3135
▁gar	-3136
▁haa	-3137
▁jud	-3138
▁lay	-3139
▁leg	-3140
▁luc	-3141
▁mar	-3142
▁men	-3143
▁mid	-3144
▁non	-3145
▁obv	-3146
▁ode	-3147
▁opt	-3148
▁pat	-3149
▁pot	-3150
▁pow	-3151
▁rob	-3152
▁rum	-3153
▁saw	-3154
▁sex	-3155
▁shr	-3156
▁son	-3157
▁ste	-3158
▁tal	-3159
▁tom	-3160
▁twe	-3161
▁unf	-3162
▁via	-3163
▁vir	-3164
▁vis	-3165
▁why	-3166
▁yes	-3167
About	-3168
Aimee	-3169
Drink	-3170
Faron	-3171
Favor	-3172
Latte	-3173
Obama	-3174
OverD	-3175
Power	-3176
Small	-3177
abbed	-3178
acked	-3179
ailed	-3180
allie	-3181
ammar	-3182
aniel	-3183
anted	-3184
antly	-3185
ardin	-3186
aster	-3187
astic	-3188
asure	-3189
ature	-3190
aving	-3191
axing	-3192
ayons	-3193
berry	-3194
billy	-3195
bound	-3196
ceans	-3197
chard	-3198
chell	-3199
De	-3200
God	-3201
ael	-3202
▁MP	-3203
inci	-3204
ised	-3205
obal	-3206
▁Ass	-3207
▁Job	-3208
▁Mae	-3209
▁One	-3210
▁See	-3211
▁dog	-3212
▁ill	-3213
▁mix	-3214
▁spl	-3215
Since	-3216
Thank	-3217
adise	-3218
althy	-3219
annel	-3220
arned	-3221
azing	-3222
ching	-3223
cohol	-3224
comes	-3225
conom	-3226
corns	-3227
echCr	-3228
edict	-3229
eland	-3230
eless	-3231
elsen	-3232
emade	-3233
ently	-3234
epend	-3235
eries	-3236
erned	-3237
erved	-3238
estly	-3239
fully	-3240
heels	-3241
house	-3242
htold	-3243
icked	-3244
icken	-3245
idges	-3246
ierch	-3247
igley	-3248
iking	-3249
iller	-3250
imate	-3251
impse	-3252
inars	-3253
inary	-3254
inger	-3255
inion	-3256
inson	-3257
ision	-3258
itate	-3259
iting	-3260
itled	-3261
itude	-3262
ively	-3263
izing	-3264
jects	-3265
ledge	-3266
lenin	-3267
leted	-3268
lined	-3269
llent	-3270
mooth	-3271
nting	-3272
ograp	-3273
okies	-3274
olicy	-3275
opted	-3276
orage	-3277
ordan	-3278
orrow	-3279
osaic	-3280
ostor	-3281
ounty	-3282
ource	-3283
ouses	-3284
ously	-3285
place	-3286
plore	-3287
pping	-3288
raord	-3289
rated	-3290
rench	-3291
renzy	-3292
retch	-3293
ribut	-3294
ritic	-3295
ropri	-3296
rying	-3297
stant	-3298
there	-3299
Lead	-3300
Read	-3301
pell	-3302
▁Inv	-3303
▁Squ	-3304
▁Wax	-3305
▁ing	-3306
▁sky	-3307
▁ton	-3308
based	-3309
ennis	-3310
ucker	-3311
udeau	-3312
ufact	-3313
ulous	-3314
umbia	-3315
urned	-3316
vance	-3317
venth	-3318
vious	-3319
worth	-3320
ython	-3321
▁Also	-3322
▁Asse	-3323
▁Bast	-3324
▁Bern	-3325
▁Blue	-3326
▁Born	-3327
▁Camp	-3328
▁Case	-3329
▁Clem	-3330
▁Coll	-3331
▁Come	-3332
▁Conf	-3333
▁Door	-3334
▁Drew	-3335
▁Educ	-3336
▁Engl	-3337
▁Falc	-3338
▁Four	-3339
▁From	-3340
▁Gaga	-3341
▁Game	-3342
▁Jazz	-3343
▁Jere	-3344
▁June	-3345
▁Keep	-3346
▁Last	-3347
▁Lens	-3348
▁Like	-3349
▁Line	-3350
▁Look	-3351
▁Lord	-3352
▁Make	-3353
▁Mari	-3354
▁Matt	-3355
▁Mead	-3356
▁Meat	-3357
▁Navy	-3358
▁Near	-3359
▁Once	-3360
▁Pack	-3361
▁Phot	-3362
▁Pole	-3363
▁Pope	-3364
▁Port	-3365
▁Prod	-3366
▁Prof	-3367
▁Prot	-3368
▁Quem	-3369
▁Show	-3370
▁Side	-3371
▁Snow	-3372
▁Star	-3373
▁Synd	-3374
▁Team	-3375
▁Thus	-3376
▁West	-3377
▁Yeah	-3378
▁Zone	-3379
▁answ	-3380
▁baff	-3381
▁bags	-3382
▁bars	-3383
▁bell	-3384
▁bene	-3385
▁bird	-3386
▁bits	-3387
▁blue	-3388
▁boil	-3389
▁busy	-3390
▁came	-3391
▁chec	-3392
▁clot	-3393
▁crew	-3394
▁crus	-3395
▁date	-3396
▁deep	-3397
▁dial	-3398
▁door	-3399
▁dose	-3400
▁doub	-3401
▁drug	-3402
▁emer	-3403
▁eras	-3404
▁exce	-3405
▁exch	-3406
▁feet	-3407
▁firm	-3408
▁five	-3409
▁flav	-3410
▁fund	-3411
▁gear	-3412
▁gene	-3413
▁gets	-3414
▁grew	-3415
▁hell	-3416
▁hide	-3417
▁hill	-3418
▁hind	-3419
▁hold	-3420
▁horr	-3421
▁huge	-3422
▁inch	-3423
▁intr	-3424
▁lake	-3425
▁land	-3426
▁late	-3427
▁left	-3428
▁loan	-3429
▁logs	-3430
▁long	-3431
▁lost	-3432
▁mark	-3433
▁mind	-3434
▁mour	-3435
▁mult	-3436
▁once	-3437
▁ones	-3438
▁onto	-3439
▁pain	-3440
▁phys	-3441
▁prom	-3442
▁pull	-3443
▁raid	-3444
▁rain	-3445
▁reve	-3446
▁rich	-3447
▁ring	-3448
▁ritu	-3449
▁road	-3450
▁roar	-3451
▁save	-3452
▁sect	-3453
▁sett	-3454
▁shot	-3455
▁slot	-3456
▁soap	-3457
▁soft	-3458
▁spec	-3459
▁stat	-3460
▁suit	-3461
▁tang	-3462
▁targ	-3463
▁tast	-3464
▁teac	-3465
▁trio	-3466
▁true	-3467
▁unre	-3468
▁vine	-3469
▁wigs	-3470
▁wish	-3471
CHURCH	-3472
During	-3473
Follow	-3474
Listen	-3475
Publis	-3476
Recent	-3477
Sunday	-3478
Thanks	-3479
action	-3480
adcast	-3481
apping	-3482
arrell	-3483
arture	-3484
asinos	-3485
assfed	-3486
cribes	-3487
elcome	-3488
ements	-3489
estine	-3490
estone	-3491
ground	-3492
ictive	-3493
idents	-3494
idered	-3495
iences	-3496
ifacts	-3497
imates	-3498
iosity	-3499
ishing	-3500
kansas	-3501
lusion	-3502
mitted	-3503
oiling	-3504
olving	-3505
ooking	-3506
opping	-3507
ounces	-3508
profit	-3509
quired	-3510
rovers	-3511
stream	-3512
ternet	-3513
thanks	-3514
uction	-3515
ucture	-3516
urious	-3517
verage	-3518
vocacy	-3519
weeney	-3520
▁Album	-3521
▁Apple	-3522
▁Baden	-3523
▁Billy	-3524
▁Broad	-3525
▁Chief	-3526
▁Chris	-3527
▁Cocoa	-3528
▁Court	-3529
▁Cover	-3530
▁Earth	-3531
▁Equip	-3532
▁Femin	-3533
▁Films	-3534
▁Funny	-3535
▁Guide	-3536
▁Hands	-3537
▁Heard	-3538
▁Holly	-3539
▁Human	-3540
▁Italy	-3541
▁Jones	-3542
▁Karen	-3543
▁Katie	-3544
▁Lines	-3545
▁Links	-3546
▁Maker	-3547
▁Poker	-3548
▁Posts	-3549
▁Prime	-3550
▁Print	-3551
▁River	-3552
▁STORY	-3553
▁Sarah	-3554
▁Scorp	-3555
▁Share	-3556
▁Somet	-3557
▁Songs	-3558
▁Thank	-3559
▁Their	-3560
▁These	-3561
▁Think	-3562
▁Tomas	-3563
▁Where	-3564
▁adapt	-3565
▁added	-3566
▁agent	-3567
▁ahead	-3568
▁armed	-3569
▁atroc	-3570
▁balls	-3571
▁basis	-3572
▁birth	-3573
▁block	-3574
▁blogs	-3575
▁blown	-3576
▁books	-3577
▁brush	-3578
▁bunch	-3579
▁calls	-3580
▁chase	-3581
▁chief	-3582
▁chose	-3583
▁crisp	-3584
▁crowd	-3585
▁cyber	-3586
▁cycle	-3587
▁death	-3588
▁decad	-3589
▁dirty	-3590
▁docum	-3591
▁dread	-3592
▁engag	-3593
▁espec	-3594
▁event	-3595
▁filmm	-3596
▁fresh	-3597
▁glass	-3598
▁goals	-3599
▁gorge	-3600
▁grand	-3601
▁green	-3602
▁guide	-3603
▁heard	-3604
▁heavy	-3605
▁hilar	-3606
▁hotel	-3607
▁icons	-3608
▁impro	-3609
▁issue	-3610
▁kinds	-3611
▁known	-3612
▁knows	-3613
▁laugh	-3614
▁lined	-3615
▁lived	-3616
▁loans	-3617
▁looks	-3618
▁loose	-3619
▁loser	-3620
▁lucky	-3621
▁maybe	-3622
▁means	-3623
▁media	-3624
▁medic	-3625
▁metal	-3626
▁money	-3627
▁moral	-3628
▁movie	-3629
▁naive	-3630
▁natur	-3631
▁needs	-3632
▁notes	-3633
▁overl	-3634
▁perce	-3635
▁phone	-3636
▁photo	-3637
▁picks	-3638
▁piece	-3639
▁plays	-3640
▁polit	-3641
▁print	-3642
▁prior	-3643
▁ranch	-3644
▁recre	-3645
▁round	-3646
▁rules	-3647
▁sales	-3648
▁sauce	-3649
▁scene	-3650
▁sched	-3651
▁sense	-3652
▁shore	-3653
▁south	-3654
▁spend	-3655
▁spray	-3656
▁stand	-3657
▁stars	-3658
▁state	-3659
▁stock	-3660
▁style	-3661
▁sweet	-3662
▁thick	-3663
▁third	-3664
▁tools	-3665
▁total	-3666
▁trade	-3667
▁trick	-3668
▁turns	-3669
▁tutor	-3670
▁usual	-3671
▁value	-3672
▁wider	-3673
AdaCamp	-3674
Biggest	-3675
Tuesday	-3676
WHEREAS	-3677
anchise	-3678
anwhile	-3679
apanese	-3680
artment	-3681
country	-3682
ecutive	-3683
embered	-3684
eration	-3685
erences	-3686
estinal	-3687
inating	-3688
iration	-3689
ircuits	-3690
issippi	-3691
mounted	-3692
ogether	-3693
otional	-3694
temucci	-3695
working	-3696
▁Alpine	-3697
▁Canada	-3698
▁Center	-3699
▁Change	-3700
▁County	-3701
▁Credit	-3702
▁Daniel	-3703
▁During	-3704
▁Elenin	-3705
▁French	-3706
▁Garson	-3707
▁German	-3708
▁Knight	-3709
▁Leslie	-3710
▁Market	-3711
▁Nights	-3712
▁Pepper	-3713
▁Planet	-3714
▁Please	-3715
▁Python	-3716
▁Quinto	-3717
▁Realty	-3718
▁Report	-3719
▁Sallie	-3720
▁Samuel	-3721
▁School	-3722
▁Senate	-3723
▁Skiing	-3724
▁Social	-3725
▁Sounds	-3726
▁Static	-3727
▁Tagged	-3728
▁Transl	-3729
▁Weekly	-3730
▁Willie	-3731
▁Zucker	-3732
▁academ	-3733
▁accept	-3734
▁access	-3735
▁action	-3736
▁adding	-3737
▁admire	-3738
▁albums	-3739
▁basics	-3740
▁begins	-3741
▁beyond	-3742
▁bonnet	-3743
▁bottle	-3744
▁canary	-3745
▁chains	-3746
▁charge	-3747
▁choice	-3748
▁choose	-3749
▁chords	-3750
▁church	-3751
▁closer	-3752
▁clouds	-3753
▁commit	-3754
▁commun	-3755
▁copies	-3756
▁critic	-3757
▁dealer	-3758
▁earned	-3759
▁easily	-3760
▁econom	-3761
▁effect	-3762
▁embark	-3763
▁encoun	-3764
▁estate	-3765
▁except	-3766
▁fairly	-3767
▁fellow	-3768
▁fields	-3769
▁frenzy	-3770
▁future	-3771
▁golden	-3772
▁ground	-3773
▁growth	-3774
▁having	-3775
▁iTunes	-3776
▁itself	-3777
▁larger	-3778
▁lights	-3779
▁looked	-3780
▁makers	-3781
▁member	-3782
▁merely	-3783
▁months	-3784
▁museum	-3785
▁myster	-3786
▁number	-3787
▁offers	-3788
▁others	-3789
▁outlet	-3790
▁packed	-3791
▁pastor	-3792
▁pieces	-3793
▁plates	-3794
▁points	-3795
▁recoll	-3796
▁repres	-3797
▁rumors	-3798
▁saying	-3799
▁scient	-3800
▁scream	-3801
▁script	-3802
▁secure	-3803
▁seeing	-3804
▁sights	-3805
▁slated	-3806
▁sounds	-3807
▁spirit	-3808
▁staple	-3809
▁surviv	-3810
▁symbol	-3811
▁syntax	-3812
▁terrif	-3813
▁theatr	-3814
▁themes	-3815
▁thirty	-3816
▁though	-3817
▁thrown	-3818
▁topics	-3819
▁toured	-3820
▁useful	-3821
▁wanted	-3822
▁weapon	-3823
▁worked	-3824
Facebook	-3825
Favorite	-3826
Probably	-3827
Saturday	-3828
Thursday	-3829
advocacy	-3830
alogical	-3831
cription	-3832
emorates	-3833
ervation	-3834
fortable	-3835
isheries	-3836
retation	-3837
standing	-3838
thiopian	-3839
ufacture	-3840
veloping	-3841
whatever	-3842
▁Affairs	-3843
▁Because	-3844
▁Brigade	-3845
▁Casinos	-3846
▁Chapter	-3847
▁Clemens	-3848
▁English	-3849
▁Falcons	-3850
▁Finally	-3851
▁Frankel	-3852
▁Hackers	-3853
▁History	-3854
▁Meadows	-3855
▁Michael	-3856
▁Nielsen	-3857
▁Officer	-3858
▁Orchard	-3859
▁Perhaps	-3860
▁Playing	-3861
▁Promise	-3862
▁Reading	-3863
▁Reviews	-3864
▁Russell	-3865
▁Segment	-3866
▁Service	-3867
▁Stierch	-3868
▁Student	-3869
▁Sweeney	-3870
▁Trudeau	-3871
▁[...]"}	-3872
▁ability	-3873
▁alcohol	-3874
▁allowed	-3875
▁amazing	-3876
▁amongst	-3877
▁appears	-3878
▁arrange	-3879
▁artists	-3880
▁aspects	-3881
▁attempt	-3882
▁becomes	-3883
▁believe	-3884
▁berries	-3885
▁billion	-3886
▁brewing	-3887
▁brother	-3888
▁carving	-3889
▁changed	-3890
▁chapter	-3891
▁classic	-3892
▁closing	-3893
▁coaxing	-3894
▁complex	-3895
▁consult	-3896
▁context	-3897
▁covered	-3898
▁crayons	-3899
▁curving	-3900
▁deposit	-3901
▁display	-3902
▁disturb	-3903
▁drawing	-3904
▁dropped	-3905
▁examine	-3906
▁faculty	-3907
▁fantasy	-3908
▁federal	-3909
▁figures	-3910
▁follows	-3911
▁glimpse	-3912
▁grammar	-3913
▁hacking	-3914
▁illustr	-3915
▁impress	-3916
▁instead	-3917
▁keeping	-3918
▁leaders	-3919
▁leading	-3920
▁logging	-3921
▁markers	-3922
▁marking	-3923
▁meaning	-3924
▁medical	-3925
▁mention	-3926
▁message	-3927
▁moments	-3928
▁moreThe	-3929
▁obliged	-3930
▁offered	-3931
▁officer	-3932
▁passion	-3933
▁patient	-3934
▁perfect	-3935
▁perhaps	-3936
▁players	-3937
▁pleased	-3938
▁podcast	-3939
▁pointed	-3940
▁prepare	-3941
▁produce	-3942
▁promise	-3943
▁putting	-3944
▁related	-3945
▁require	-3946
▁results	-3947
▁rituals	-3948
▁rookies	-3949
▁scholar	-3950
▁science	-3951
▁seeking	-3952
▁serious	-3953
▁seventh	-3954
▁similar	-3955
▁speaker	-3956
▁spencer	-3957
▁station	-3958
▁streets	-3959
▁stretch	-3960
▁student	-3961
▁studies	-3962
▁tallied	-3963
▁touring	-3964
▁travels	-3965
▁typical	-3966
▁uncover	-3967
▁updates	-3968
▁village	-3969
▁walking	-3970
▁wanting	-3971
▁watches	-3972
▁wealthy	-3973
▁winners	-3974
▁wrapped	-3975
▁written	-3976
OverDrive	-3977
President	-3978
Published	-3979
Wednesday	-3980
advocates	-3981
echCrunch	-3982
something	-3983
▁Aeolidia	-3984
▁Announce	-3985
▁Arkansas	-3986
▁Assembly	-3987
▁Autistic	-3988
▁Bastille	-3989
▁Bechtold	-3990
▁Benedict	-3991
▁Broadway	-3992
▁Business	-3993
▁Campaign	-3994
▁Children	-3995
▁Christie	-3996
▁Columbia	-3997
▁Copeland	-3998
▁Davidson	-3999
▁Director	-4000
▁District	-4001
▁Gambling	-4002
▁Impostor	-4003
▁Independ	-4004
▁Japanese	-4005
▁Minister	-4006
▁Mitchell	-4007
▁Republic	-4008
▁Research	-4009
▁Students	-4010
▁Syndrome	-4011
▁Thursday	-4012
▁advanced	-4013
▁advocacy	-4014
▁allowing	-4015
▁anywhere	-4016
▁appropri	-4017
▁artistry	-4018
▁attached	-4019
▁attended	-4020
▁baffling	-4021
▁birthday	-4022
▁building	-4023
▁captions	-4024
▁captured	-4025
▁colorful	-4026
▁comments	-4027
▁concerts	-4028
▁consider	-4029
▁contains	-4030
▁convince	-4031
▁declined	-4032
▁designed	-4033
▁designer	-4034
▁detailed	-4035
▁dialogue	-4036
▁educator	-4037
▁emphasis	-4038
▁enormity	-4039
▁entitled	-4040
▁exchange	-4041
▁explores	-4042
▁extraord	-4043
▁fabulous	-4044
▁faceless	-4045
▁feedback	-4046
▁gorgeous	-4047
▁grassfed	-4048
▁greatest	-4049
▁homemade	-4050
▁includes	-4051
▁increase	-4052
▁investig	-4053
▁lemonade	-4054
▁meantime	-4055
▁military	-4056
▁numerous	-4057
▁offering	-4058
▁official	-4059
▁original	-4060
▁paradise	-4061
▁pleasure	-4062
▁position	-4063
▁previews	-4064
▁produced	-4065
▁progress	-4066
▁receipts	-4067
▁recently	-4068
▁releases	-4069
▁religion	-4070
▁remember	-4071
▁revealed	-4072
▁somewhat	-4073
▁speaking	-4074
▁strongly	-4075
▁suitable	-4076
▁talented	-4077
▁thoughts	-4078
▁tiebreak	-4079
▁vacation	-4080
▁whatever	-4081
▁wordplay	-4082
Underrated	-4083
plications	-4084
structured	-4085
sustaining	-4086
ukImperial	-4087
▁Americans	-4088
▁Announces	-4089
▁Bernardin	-4090
▁Churchill	-4091
▁CoverGirl	-4092
▁Equipment	-4093
▁Executive	-4094
▁Meatworks	-4095
▁Ourselves	-4096
▁Palestine	-4097
▁Robertson	-4098
▁Scorpions	-4099
▁Sometimes	-4100
▁Survivors	-4101
▁alongside	-4102
▁announced	-4103
▁artifacts	-4104
▁automated	-4105
▁beautiful	-4106
▁broadcast	-4107
▁buildings	-4108
▁campaigns	-4109
▁certainly	-4110
▁concerned	-4111
▁confirmed	-4112
▁contribut	-4113
▁creatures	-4114
▁curiosity	-4115
▁delicious	-4116
▁describes	-4117
▁difficult	-4118
▁diversity	-4119
▁education	-4120
▁entertain	-4121
▁excellent	-4122
▁existence	-4123
▁fantastic	-4124
▁favorites	-4125
▁featuring	-4126
▁incidents	-4127
▁intention	-4128
▁milestone	-4129
▁obviously	-4130
▁performed	-4131
▁photograp	-4132
▁positions	-4133
▁practices	-4134
▁proposals	-4135
▁providers	-4136
▁religious	-4137
▁resources	-4138
▁selection	-4139
▁sensation	-4140
▁seriously	-4141
▁somewhere	-4142
▁spreading	-4143
▁structure	-4144
▁supported	-4145
▁technical	-4146
▁traveling	-4147
▁tutorials	-4148
▁workshops	-4149
▁Activities	-4150
▁Conference	-4151
▁Department	-4152
▁Everything	-4153
▁Laboratory	-4154
▁Martemucci	-4155
▁Protection	-4156
▁Sportsbook	-4157
▁Zuckerberg	-4158
▁acceptance	-4159
▁additional	-4160
▁applicable	-4161
▁background	-4162
▁collection	-4163
▁completely	-4164
▁conclusion	-4165
▁considered	-4166
▁controvers	-4167
▁developing	-4168
▁difficulty	-4169
▁displaying	-4170
▁disturbing	-4171
▁especially	-4172
▁foundation	-4173
▁heartbreak	-4174
▁intestinal	-4175
▁mainstream	-4176
▁mysterious	-4177
▁newsletter	-4178
▁occasional	-4179
▁organizers	-4180
▁properties	-4181
▁undercover	-4182
▁volunteers	-4183
OnlineCasino	-4184
▁Development	-4185
▁Mississippi	-4186
▁STORYCHURCH	-4187
▁anniversary	-4188
▁compliments	-4189
▁exhibitions	-4190
▁experiences	-4191
▁fascinating	-4192
▁festivities	-4193
▁interviewed	-4194
▁peppercorns	-4195
▁programming	-4196
▁surrounding	-4197
▁Commemorates	-4198
▁Investigator	-4199
▁Neighborhood	-4200
▁acknowledged	-4201
▁architecture	-4202
▁construction	-4203
▁corporations	-4204
▁genealogical	-4205
▁introduction	-4206
▁investigator	-4207
▁recollection	-4208
▁Announcements	-4209
▁extraordinary	-4210
▁international	-4211
▁professionals	-4212
▁understanding	-4213
▁interpretation	-4214
▁pharmaceutical	-4215
▁responsibility	-4216
▁Alexisjoyvipaccess	-4217
________________________________	-4218
AKA	-4219
EFT	-4220
Exc	-4221
IMA	-4222
KAT	-4223
NAC	-4224
NBC	-4225
OOL	-4226
ORE	-4227
OTE	-4228
PDF	-4229
RIM	-4230
RSA	-4231
SRA	-4232
Two	-4233
WAT	-4234
dds	-4235
fsn	-4236
hyl	-4237
lha	-4238
mmm	-4239
oaf	-4240
zyi	-4241
!!!)	-4242
ACPS	-4243
ARSA	-4244
COOT	-4245
Carl	-4246
Farl	-4247
GRIM	-4248
IMAG	-4249
Jazz	-4250
Prof	-4251
READ	-4252
SARA	-4253
SECO	-4254
SRAE	-4255
Twin	-4256
body	-4257
bury	-4258
circ	-4259
crad	-4260
crep	-4261
dogs	-4262
door	-4263
erms	-4264
eval	-4265
exas	-4266
gett	-4267
hecy	-4268
hett	-4269
hips	-4270
iada	-4271
inya	-4272
mosp	-4273
news	-4274
ophy	-4275
orcy	-4276
riev	-4277
ripW	-4278
rmed	-4279
rumb	-4280
ungs	-4281
uryL	-4282
yram	-4283
▁AIC	-4284
▁AIS	-4285
▁EST	-4286
▁Eye	-4287
▁FBI	-4288
▁HMS	-4289
▁IRS	-4290
▁ITT	-4291
▁Ide	-4292
▁LOL	-4293
▁McG	-4294
▁PST	-4295
▁USA	-4296
▁YOU	-4297
▁eye	-4298
▁zip	-4299
AST	-4300
OVE	-4301
Blue	-4302
LOVE	-4303
Stay	-4304
Stud	-4305
Upon	-4306
atme	-4307
mely	-4308
scal	-4309
ummy	-4310
▁AHM	-4311
▁Amy	-4312
▁ESI	-4313
▁Haa	-4314
▁Kyr	-4315
▁lyr	-4316
ARSAW	-4317
Actor	-4318
Alias	-4319
Armed	-4320
Being	-4321
Black	-4322
Brian	-4323
Chair	-4324
Check	-4325
Defin	-4326
EFORE	-4327
Fresh	-4328
GRIMS	-4329
IMAGE	-4330
ISFor	-4331
Image	-4332
Males	-4333
Misty	-4334
Molly	-4335
North	-4336
Photo	-4337
READY	-4338
Radio	-4339
Reser	-4340
SRAEL	-4341
Stand	-4342
TYour	-4343
Texas	-4344
TheRe	-4345
WATCH	-4346
abote	-4347
affed	-4348
agmar	-4349
anneh	-4350
aphyl	-4351
arlem	-4352
atomy	-4353
basil	-4354
cards	-4355
curse	-4356
erque	-4357
femin	-4358
funky	-4359
going	-4360
hanna	-4361
hetti	-4362
hicle	-4363
ippie	-4364
irley	-4365
kshop	-4366
liter	-4367
newed	-4368
nique	-4369
nurse	-4370
odded	-4371
oiced	-4372
oints	-4373
ology	-4374
ompre	-4375
orgia	-4376
ossal	-4377
rador	-4378
ragon	-4379
razyi	-4380
ribly	-4381
rolic	-4382
scale	-4383
ulitz	-4384
unkir	-4385
zinya	-4386
▁AHML	-4387
▁Assa	-4388
▁Bomb	-4389
▁CNBC	-4390
▁Cato	-4391
▁Coco	-4392
▁Cras	-4393
▁Cray	-4394
▁Crip	-4395
▁Ener	-4396
▁Feel	-4397
▁Geek	-4398
▁Germ	-4399
vada	-4400
iplay	-4401
rones	-4402
▁Hmmm	-4403
▁Isra	-4404
▁Kimi	-4405
▁LAKE	-4406
▁Monk	-4407
▁NOTE	-4408
▁Note	-4409
▁Opry	-4410
▁PAST	-4411
▁Patr	-4412
▁Paul	-4413
▁Plea	-4414
▁REPO	-4415
▁RKAT	-4416
▁Redd	-4417
▁Skin	-4418
▁Slap	-4419
▁Slot	-4420
▁Smar	-4421
▁Sony	-4422
▁Stew	-4423
▁Suic	-4424
▁Surg	-4425
▁Swim	-4426
▁Type	-4427
▁Webb	-4428
▁YOUR	-4429
▁arms	-4430
▁birc	-4431
▁boat	-4432
▁burd	-4433
▁cats	-4434
▁cuis	-4435
▁drip	-4436
▁eleg	-4437
▁fanf	-4438
▁foot	-4439
▁geek	-4440
▁gigs	-4441
▁glee	-4442
▁hype	-4443
▁judg	-4444
▁legs	-4445
▁lips	-4446
▁lung	-4447
▁menu	-4448
▁obsc	-4449
▁olha	-4450
▁punk	-4451
▁semi	-4452
▁sexy	-4453
▁slee	-4454
▁snit	-4455
▁tiny	-4456
▁tomf	-4457
▁tonk	-4458
▁visa	-4459
▁wigg	-4460
Credit	-4461
Exclus	-4462
Garson	-4463
Jordan	-4464
LGRIMS	-4465
Lauren	-4466
Mosaic	-4467
Northw	-4468
RTYour	-4469
Reader	-4470
Scatte	-4471
Should	-4472
WARSAW	-4473
Wheels	-4474
agmara	-4475
alized	-4476
amercy	-4477
andria	-4478
anigan	-4479
antedI	-4480
apshot	-4481
arkWeb	-4482
atalog	-4483
atches	-4484
autner	-4485
bjects	-4486
ceansh	-4487
circum	-4488
clever	-4489
danger	-4490
eatWor	-4491
ectomy	-4492
etwood	-4493
fortun	-4494
frolic	-4495
gether	-4496
haling	-4497
hecyAd	-4498
heimer	-4499
Ask	-4500
Sole	-4501
daho	-4502
elta	-4503
irls	-4504
owsk	-4505
piec	-4506
zzle	-4507
▁RiR	-4508
Alike	-4509
Posts	-4510
Which	-4511
aimed	-4512
oseph	-4513
owska	-4514
piecz	-4515
roved	-4516
these	-4517
udden	-4518
uddle	-4519
urges	-4520
uzzle	-4521
▁Ages	-4522
▁COPS	-4523
▁Danc	-4524
▁Next	-4525
▁RiRi	-4526
▁budd	-4527
▁elig	-4528
▁flat	-4529
▁flaw	-4530
▁gamb	-4531
▁girl	-4532
▁iron	-4533
▁pots	-4534
▁ratt	-4535
▁symp	-4536
AlikeW	-4537
ensify	-4538
hetics	-4539
hfully	-4540
houses	-4541
ickham	-4542
igleyS	-4543
imilar	-4544
imprec	-4545
iolent	-4546
isiana	-4547
isionJ	-4548
izarre	-4549
laimed	-4550
leases	-4551
lynews	-4552
master	-4553
neighb	-4554
ologic	-4555
olucci	-4556
omberg	-4557
ompany	-4558
ooster	-4559
pelled	-4560
phones	-4561
pieczn	-4562
points	-4563
rafted	-4564
rekker	-4565
rumbol	-4566
scares	-4567
sitate	-4568
soaked	-4569
sports	-4570
ticles	-4571
timate	-4572
tising	-4573
tively	-4574
topian	-4575
ubscri	-4576
udonym	-4577
uffled	-4578
umbled	-4579
unkirk	-4580
unting	-4581
worthy	-4582
writer	-4583
xworth	-4584
yanide	-4585
ynamic	-4586
yright	-4587
▁(!!!)	-4588
▁Agent	-4589
▁Ahead	-4590
▁Alias	-4591
▁Baloc	-4592
▁Blitz	-4593
▁Buddy	-4594
▁Calls	-4595
▁Carol	-4596
▁Cases	-4597
▁Catan	-4598
▁Claim	-4599
IDN	-4600
ooter	-4601
ships	-4602
▁DIDN	-4603
▁retr	-4604
isters	-4605
orters	-4606
▁Domes	-4607
▁Domin	-4608
▁Donov	-4609
▁Draft	-4610
▁Dynam	-4611
▁Entry	-4612
▁Flash	-4613
▁Focus	-4614
▁Giada	-4615
▁Grand	-4616
▁Green	-4617
▁Heart	-4618
▁Hobby	-4619
▁Ideal	-4620
▁Jerem	-4621
▁Karol	-4622
▁Kevan	-4623
▁Laura	-4624
▁Laure	-4625
▁Looks	-4626
▁Loser	-4627
▁Manag	-4628
▁Maura	-4629
▁Memor	-4630
▁Michm	-4631
▁Mills	-4632
▁Month	-4633
▁North	-4634
▁OffAl	-4635
▁Optim	-4636
▁Osama	-4637
▁Paine	-4638
▁Parke	-4639
▁Perry	-4640
▁Photo	-4641
▁Quote	-4642
▁Realt	-4643
▁Relay	-4644
▁Roman	-4645
▁SCOOT	-4646
▁Sanit	-4647
▁Setup	-4648
▁Shoaf	-4649
▁Slots	-4650
▁Solut	-4651
▁Steak	-4652
▁TeamF	-4653
▁Templ	-4654
▁Topic	-4655
▁TripW	-4656
▁Turke	-4657
▁Twain	-4658
▁Value	-4659
▁Vinci	-4660
▁Vital	-4661
▁Walls	-4662
▁WeekN	-4663
▁Winst	-4664
▁Woman	-4665
▁WordI	-4666
▁Wrong	-4667
▁XXXXE	-4668
▁Yummy	-4669
▁agend	-4670
▁alche	-4671
▁badly	-4672
▁belly	-4673
▁blurb	-4674
▁buddy	-4675
▁burly	-4676
▁candy	-4677
▁chron	-4678
▁combo	-4679
▁dandy	-4680
▁drops	-4681
▁elite	-4682
▁error	-4683
▁expon	-4684
▁facts	-4685
▁feeds	-4686
▁filed	-4687
▁files	-4688
▁floor	-4689
▁flows	-4690
▁freed	-4691
▁funct	-4692
▁funds	-4693
▁groom	-4694
▁handm	-4695
▁homes	-4696
▁honky	-4697
▁honor	-4698
▁horse	-4699
EST	-4700
POC	-4701
POT	-4702
TIO	-4703
aws	-4704
Dese	-4705
ESTS	-4706
Gaga	-4707
TION	-4708
abby	-4709
adyn	-4710
alts	-4711
kids	-4712
laws	-4713
ubby	-4714
▁Atl	-4715
▁Lyn	-4716
▁err	-4717
Loose	-4718
UESTS	-4719
[...]	-4720
apsed	-4721
apsul	-4722
grees	-4723
hubby	-4724
iency	-4725
ociet	-4726
odder	-4727
otton	-4728
oyees	-4729
poses	-4730
ucket	-4731
▁Arch	-4732
▁Arts	-4733
▁EPOC	-4734
▁Kids	-4735
▁Orig	-4736
▁SPOT	-4737
▁Shaw	-4738
▁kept	-4739
▁luck	-4740
▁priv	-4741
▁skot	-4742
▁wins	-4743
atepro	-4744
elined	-4745
idency	-4746
lessly	-4747
ociety	-4748
remely	-4749
▁About	-4750
▁Athen	-4751
▁Galts	-4752
▁Lynch	-4753
▁Plane	-4754
▁Sites	-4755
▁chuck	-4756
▁expos	-4757
▁hacks	-4758
▁icing	-4759
▁immed	-4760
▁ingen	-4761
▁irish	-4762
▁irony	-4763
▁irret	-4764
▁jokes	-4765
▁legit	-4766
▁liken	-4767
▁links	-4768
▁liter	-4769
▁lungs	-4770
▁manne	-4771
▁masks	-4772
▁merry	-4773
▁midst	-4774
▁mixed	-4775
▁mourn	-4776
▁north	-4777
▁obliv	-4778
▁occup	-4779
▁picky	-4780
▁pluck	-4781
▁poker	-4782
▁pored	-4783
▁proof	-4784
▁pyram	-4785
▁raked	-4786
▁reaff	-4787
▁refer	-4788
▁reply	-4789
▁repug	-4790
▁resta	-4791
▁retic	-4792
▁retro	-4793
▁rides	-4794
▁rocky	-4795
▁rolls	-4796
▁satur	-4797
▁scrum	-4798
▁scrut	-4799
girl	-4800
Invis	-4801
Thurs	-4802
leven	-4803
puter	-4804
vised	-4805
▁Inde	-4806
▁cush	-4807
▁drum	-4808
▁nurs	-4809
▁twos	-4810
Eleven	-4811
church	-4812
umping	-4813
vision	-4814
▁Begin	-4815
▁FilmA	-4816
▁Index	-4817
▁drink	-4818
▁drone	-4819
▁drums	-4820
▁joint	-4821
▁popul	-4822
▁seven	-4823
▁shots	-4824
▁signs	-4825
▁slows	-4826
▁sneak	-4827
▁sorta	-4828
▁split	-4829
▁steel	-4830
▁stole	-4831
▁strok	-4832
▁surpr	-4833
▁templ	-4834
▁tense	-4835
▁title	-4836
▁trend	-4837
▁trigg	-4838
▁truly	-4839
▁twent	-4840
▁twist	-4841
▁vineg	-4842
▁viral	-4843
▁virus	-4844
▁vocal	-4845
▁walls	-4846
▁waves	-4847
▁weird	-4848
▁wrong	-4849
Already	-4850
Duxford	-4851
ILGRIMS	-4852
Instant	-4853
Looking	-4854
MeatWor	-4855
REATION	-4856
Readers	-4857
Reserve	-4858
Respect	-4859
Similar	-4860
TheReal	-4861
Whether	-4862
Working	-4863
abrador	-4864
aghetti	-4865
amental	-4866
anigans	-4867
appreci	-4868
apshots	-4869
ardized	-4870
areness	-4871
argerMr	-4872
aryland	-4873
athroom	-4874
atitude	-4875
avidson	-4876
bookNow	-4877
circumc	-4878
coaster	-4879
compell	-4880
covered	-4881
created	-4882
crepanc	-4883
cussion	-4884
ddsSole	-4885
endency	-4886
ersBest	-4887
eserved	-4888
fledged	-4889
hensive	-4890
hlessly	-4891
ikowska	-4892
ilitary	-4893
ilitate	-4894
ingBlog	-4895
ingback	-4896
inlight	-4897
inzinya	-4898
iolence	-4899
▁ZZ	-4900
!!"}	-4901
ends	-4902
fied	-4903
harm	-4904
iftB	-4905
male	-4906
norm	-4907
wift	-4908
▁Elm	-4909
Swift	-4910
emale	-4911
ervat	-4912
ffman	-4913
ified	-4914
▁Bale	-4915
▁Serv	-4916
▁Spok	-4917
▁Zach	-4918
▁dorm	-4919
▁farm	-4920
▁gift	-4921
▁norm	-4922
▁sale	-4923
arming	-4924
arrass	-4925
ashman	-4926
incare	-4927
isfied	-4928
malein	-4929
moning	-4930
normal	-4931
offman	-4932
riends	-4933
▁Being	-4934
▁Calic	-4935
▁GiftB	-4936
▁PostS	-4937
▁Skate	-4938
▁Spend	-4939
▁Squaw	-4940
▁heady	-4941
▁prett	-4942
▁scale	-4943
▁storm	-4944
Friends	-4945
bonuses	-4946
fection	-4947
harmful	-4948
ionsNow	-4949
iplayer	-4950
ispatch	-4951
ividual	-4952
knowing	-4953
moothly	-4954
mospher	-4955
napshot	-4956
necting	-4957
oarding	-4958
obinson	-4959
ocketed	-4960
odcasts	-4961
omorrow	-4962
onestly	-4963
onsider	-4964
oomberg	-4965
orehand	-4966
ospital	-4967
otoring	-4968
ownload	-4969
pergers	-4970
ployees	-4971
quality	-4972
rashman	-4973
retched	-4974
ristmas	-4975
rumbolt	-4976
tendees	-4977
ubscrib	-4978
uddenly	-4979
ulatory	-4980
ulitzer	-4981
ultants	-4982
umental	-4983
undreds	-4984
unistic	-4985
vehicle	-4986
writing	-4987
zheimer	-4988
zpieczn	-4989
▁Adding	-4990
▁Anonym	-4991
▁Appare	-4992
▁Associ	-4993
▁August	-4994
▁Awards	-4995
▁Billie	-4996
▁Blackj	-4997
▁Calico	-4998
▁Cathol	-4999
RAM	-5000
olf	-5001
oli	-5002
▁Kl	-5003
Card	-5004
RAMM	-5005
fest	-5006
icol	-5007
sour	-5008
thor	-5009
▁Kla	-5010
▁Mag	-5011
▁Pol	-5012
▁ble	-5013
▁dri	-5014
icola	-5015
igest	-5016
thora	-5017
udolf	-5018
▁aest	-5019
▁blew	-5020
▁cond	-5021
▁cuts	-5022
▁dest	-5023
▁foli	-5024
▁shel	-5025
CHRAMM	-5026
atives	-5027
emberG	-5028
iginal	-5029
reting	-5030
viving	-5031
▁Break	-5032
▁Chang	-5033
▁Hills	-5034
▁Hours	-5035
▁Idaho	-5036
▁Klaus	-5037
▁Magic	-5038
▁PostM	-5039
▁Times	-5040
▁Which	-5041
▁bread	-5042
▁regul	-5043
ecember	-5044
essment	-5045
icially	-5046
ippings	-5047
iscover	-5048
sourced	-5049
▁Athena	-5050
▁Catoct	-5051
▁Celebr	-5052
▁Centre	-5053
▁Charts	-5054
▁Choose	-5055
▁Collar	-5056
▁Coping	-5057
▁Coples	-5058
▁Cripes	-5059
▁Digest	-5060
▁Donald	-5061
▁Dragon	-5062
▁Empath	-5063
▁Energy	-5064
▁Father	-5065
▁Finest	-5066
▁Finish	-5067
▁Fourth	-5068
▁GUESTS	-5069
▁Global	-5070
▁Hacker	-5071
▁Hiking	-5072
▁Indeed	-5073
▁Indust	-5074
▁Inters	-5075
▁Israel	-5076
▁Jeremy	-5077
▁Joseph	-5078
▁Kather	-5079
▁Killed	-5080
▁Lauren	-5081
▁McFarl	-5082
▁Member	-5083
▁Mental	-5084
▁Minist	-5085
▁Nicola	-5086
▁Office	-5087
▁Period	-5088
▁Policy	-5089
▁Polish	-5090
▁Popped	-5091
▁Portab	-5092
▁Portug	-5093
▁Random	-5094
▁Reader	-5095
▁Reddit	-5096
▁Resign	-5097
▁Retire	-5098
▁Rudolf	-5099
Key	-5100
Lot	-5101
Rep	-5102
agm	-5103
hta	-5104
pid	-5105
vin	-5106
▁DM	-5107
▁XV	-5108
Hist	-5109
enge	-5110
list	-5111
ouls	-5112
rias	-5113
▁AIF	-5114
▁ATH	-5115
▁Deb	-5116
▁Del	-5117
▁Mrs	-5118
▁XVI	-5119
▁ang	-5120
▁cap	-5121
▁eag	-5122
▁eld	-5123
These	-5124
ayist	-5125
elvin	-5126
enter	-5127
odore	-5128
reest	-5129
repid	-5130
▁ATHN	-5131
▁DMed	-5132
▁fanc	-5133
▁icon	-5134
▁rack	-5135
▁shar	-5136
▁stri	-5137
▁tied	-5138
▁tons	-5139
Lotter	-5140
Report	-5141
agmire	-5142
ainder	-5143
freest	-5144
listed	-5145
reeted	-5146
ricult	-5147
thouse	-5148
▁Arias	-5149
▁Canad	-5150
▁Julio	-5151
▁Lifeh	-5152
▁Souls	-5153
▁angle	-5154
▁eager	-5155
▁elder	-5156
▁fancy	-5157
▁gives	-5158
▁sharp	-5159
▁stain	-5160
▁thist	-5161
▁urges	-5162
Lottery	-5163
allenge	-5164
▁Bashta	-5165
▁Melvin	-5166
▁Seeing	-5167
▁Silent	-5168
▁Simard	-5169
▁Singer	-5170
▁Smooth	-5171
▁Square	-5172
▁Status	-5173
▁Thomas	-5174
▁Topics	-5175
▁Tracks	-5176
▁Turkey	-5177
▁Wander	-5178
▁admits	-5179
▁agency	-5180
▁armour	-5181
▁arrang	-5182
▁assume	-5183
▁author	-5184
▁bacter	-5185
▁badges	-5186
▁battle	-5187
▁behalf	-5188
▁behind	-5189
▁brainy	-5190
▁bucket	-5191
▁button	-5192
▁buying	-5193
▁camera	-5194
▁cement	-5195
▁checks	-5196
▁citing	-5197
▁clever	-5198
▁client	-5199
HIS	-5200
Pol	-5201
aun	-5202
iru	-5203
▁Fo	-5204
▁LC	-5205
▁RI	-5206
▁hy	-5207
iebs	-5208
imin	-5209
lebr	-5210
mber	-5211
mend	-5212
moth	-5213
pers	-5214
sPol	-5215
stra	-5216
tern	-5217
▁Bar	-5218
▁End	-5219
▁Fed	-5220
▁Fle	-5221
▁Let	-5222
▁RIG	-5223
▁Rad	-5224
▁Wom	-5225
▁Woo	-5226
▁bin	-5227
▁hyd	-5228
▁tem	-5229
Biebs	-5230
ibiru	-5231
igers	-5232
ignon	-5233
share	-5234
▁Ball	-5235
▁Fire	-5236
▁Inte	-5237
▁Lion	-5238
▁MAKE	-5239
▁RIGH	-5240
▁THIS	-5241
▁bite	-5242
▁heal	-5243
▁laun	-5244
▁sequ	-5245
▁temp	-5246
Spring	-5247
absPol	-5248
celebr	-5249
hemoth	-5250
persed	-5251
spects	-5252
vignon	-5253
▁Dimin	-5254
▁JuryL	-5255
▁RIGHT	-5256
▁Radha	-5257
▁Women	-5258
▁beers	-5259
▁examp	-5260
▁hydro	-5261
▁image	-5262
▁irrit	-5263
▁moreF	-5264
▁roots	-5265
▁stall	-5266
commend	-5267
htaking	-5268
ication	-5269
ovember	-5270
▁Barack	-5271
▁Brigad	-5272
▁Nibiru	-5273
▁Posted	-5274
▁Tigers	-5275
▁altern	-5276
▁combat	-5277
▁demand	-5278
▁digest	-5279
▁dining	-5280
▁double	-5281
▁easier	-5282
▁escape	-5283
▁essent	-5284
▁exists	-5285
▁fabric	-5286
▁fallen	-5287
▁farmer	-5288
▁feisty	-5289
▁female	-5290
▁festiv	-5291
▁firmly	-5292
▁flatul	-5293
▁flawed	-5294
▁fodder	-5295
▁forest	-5296
▁forget	-5297
▁frills	-5298
▁fronts	-5299
',	-5300
Cre	-5301
chl	-5302
oce	-5303
▁Dr	-5304
▁Du	-5305
aste	-5306
gill	-5307
inte	-5308
temp	-5309
uous	-5310
▁Cru	-5311
▁Dis	-5312
▁Dow	-5313
▁DuB	-5314
▁Gay	-5315
▁Has	-5316
▁Hat	-5317
▁Her	-5318
▁Hit	-5319
▁Hur	-5320
▁Pin	-5321
▁Pit	-5322
▁ach	-5323
▁era	-5324
alcol	-5325
eckel	-5326
inine	-5327
oured	-5328
rates	-5329
▁Disc	-5330
▁DuBo	-5331
▁Eden	-5332
▁FOOL	-5333
▁Pitf	-5334
▁Voce	-5335
▁What	-5336
▁Wing	-5337
▁spar	-5338
Create	-5339
Health	-5340
UNESCO	-5341
alcolm	-5342
eckelm	-5343
integr	-5344
luding	-5345
mother	-5346
ocuous	-5347
tempor	-5348
▁Gayle	-5349
▁achie	-5350
▁blast	-5351
▁gloss	-5352
▁paste	-5353
ainment	-5354
chloric	-5355
nership	-5356
nocuous	-5357
ocrates	-5358
ritical	-5359
▁Cruise	-5360
▁DuBois	-5361
▁Hurric	-5362
▁gander	-5363
▁gather	-5364
▁genres	-5365
▁global	-5366
▁grants	-5367
▁grouse	-5368
▁hacker	-5369
▁hinder	-5370
▁honors	-5371
▁horror	-5372
▁houses	-5373
▁hugely	-5374
▁iconic	-5375
▁ideals	-5376
▁immedi	-5377
▁ingred	-5378
▁inside	-5379
▁instag	-5380
▁instit	-5381
▁killed	-5382
▁landed	-5383
▁lapsed	-5384
▁layers	-5385
▁layout	-5386
▁legacy	-5387
▁linger	-5388
▁living	-5389
▁logged	-5390
▁lyrics	-5391
▁mental	-5392
▁missed	-5393
▁movies	-5394
▁multip	-5395
▁nabbed	-5396
▁nights	-5397
▁numero	-5398
▁oceans	-5399
Mir	-5400
Ton	-5401
bec	-5402
oos	-5403
unn	-5404
▁ME	-5405
▁Md	-5406
▁Mt	-5407
With	-5408
becc	-5409
ighe	-5410
imar	-5411
imid	-5412
inda	-5413
rial	-5414
teen	-5415
unno	-5416
▁Bur	-5417
▁Den	-5418
▁Dod	-5419
▁Mid	-5420
▁Rem	-5421
▁Sex	-5422
▁red	-5423
agost	-5424
becca	-5425
erary	-5426
▁List	-5427
▁Loun	-5428
▁Mike	-5429
▁Walk	-5430
▁Wand	-5431
▁Wife	-5432
▁glad	-5433
▁pill	-5434
▁prot	-5435
▁ster	-5436
▁teen	-5437
Mirror	-5438
asants	-5439
ighest	-5440
lagost	-5441
oosing	-5442
verend	-5443
▁Dodge	-5444
▁Laden	-5445
▁Linda	-5446
▁PostL	-5447
▁dunno	-5448
▁passw	-5449
▁whose	-5450
Tonight	-5451
imarily	-5452
inerary	-5453
lectron	-5454
ourteen	-5455
profits	-5456
▁Burles	-5457
▁Denise	-5458
▁Killer	-5459
▁Lounge	-5460
▁Middle	-5461
▁Sexual	-5462
▁gladly	-5463
▁nation	-5464
▁option	-5465
▁overan	-5466
▁parked	-5467
▁period	-5468
▁picked	-5469
▁pillag	-5470
▁policy	-5471
▁popped	-5472
▁potent	-5473
▁powder	-5474
▁primer	-5475
▁profit	-5476
▁pulled	-5477
▁quotes	-5478
▁rainco	-5479
▁raping	-5480
▁replic	-5481
▁respon	-5482
▁ridges	-5483
▁robber	-5484
▁rockst	-5485
▁rolled	-5486
▁roller	-5487
▁rootsy	-5488
▁scores	-5489
▁sector	-5490
▁sequel	-5491
▁shared	-5492
▁shrank	-5493
▁shreds	-5494
▁shrimp	-5495
▁simile	-5496
▁simult	-5497
▁skotch	-5498
▁sparse	-5499
.-	-5500
YSE	-5501
die	-5502
fty	-5503
ila	-5504
och	-5505
NYSE	-5506
esse	-5507
ortc	-5508
prod	-5509
toot	-5510
▁IRC	-5511
▁Mom	-5512
▁Sil	-5513
▁bil	-5514
▁ham	-5515
▁isc	-5516
▁met	-5517
▁sig	-5518
▁sil	-5519
alley	-5520
ateur	-5521
bians	-5522
force	-5523
iddie	-5524
quila	-5525
techn	-5526
▁Bene	-5527
▁Moms	-5528
▁Same	-5529
▁dive	-5530
▁meth	-5531
▁spin	-5532
▁tome	-5533
Aquila	-5534
Images	-5535
active	-5536
eather	-5537
▁Adele	-5538
▁Girls	-5539
▁Spoil	-5540
▁adore	-5541
▁areas	-5542
▁hefty	-5543
▁prove	-5544
▁sigue	-5545
▁tasks	-5546
actions	-5547
esbians	-5548
ndition	-5549
ochrome	-5550
ortcake	-5551
toothed	-5552
▁Deanne	-5553
▁Silver	-5554
▁Simple	-5555
▁Valley	-5556
▁biling	-5557
▁format	-5558
▁hammer	-5559
▁improv	-5560
▁intrig	-5561
▁iscool	-5562
▁kiddie	-5563
▁laughs	-5564
▁method	-5565
▁specif	-5566
▁stayed	-5567
▁steaks	-5568
▁street	-5569
▁stroke	-5570
▁superb	-5571
▁superm	-5572
▁taling	-5573
▁talked	-5574
▁tastes	-5575
▁taught	-5576
▁teller	-5577
▁tennis	-5578
▁thisto	-5579
▁titled	-5580
▁toturn	-5581
▁trends	-5582
▁trials	-5583
▁turned	-5584
▁tweets	-5585
▁typers	-5586
▁undead	-5587
▁unfair	-5588
▁unfold	-5589
▁update	-5590
▁visits	-5591
▁vocals	-5592
▁wicked	-5593
▁wiggly	-5594
▁winner	-5595
▁worthy	-5596
Autistic	-5597
Cardinal	-5598
Computer	-5599
bo	-5600
sg	-5601
Cur	-5602
Pur	-5603
Rew	-5604
Tur	-5605
adl	-5606
eur	-5607
how	-5608
kow	-5609
▁DV	-5610
▁FB	-5611
▁MS	-5612
Matt	-5613
gain	-5614
llig	-5615
owse	-5616
urst	-5617
zkow	-5618
▁Alb	-5619
▁DVD	-5620
▁Hel	-5621
▁MSN	-5622
▁hat	-5623
▁low	-5624
▁lux	-5625
▁ori	-5626
▁sid	-5627
Again	-5628
arium	-5629
board	-5630
burst	-5631
iding	-5632
ierce	-5633
leash	-5634
plice	-5635
uters	-5636
utrit	-5637
▁Albu	-5638
▁Help	-5639
▁Myan	-5640
▁OffA	-5641
▁ball	-5642
▁bear	-5643
Purple	-5644
Splice	-5645
amming	-5646
cradle	-5647
zkowic	-5648
▁Comet	-5649
▁Cream	-5650
▁Johns	-5651
▁Maxon	-5652
▁deadl	-5653
▁entic	-5654
▁herbs	-5655
▁moreA	-5656
▁promo	-5657
▁trash	-5658
▁wants	-5659
Current	-5660
Reuters	-5661
Turning	-5662
illance	-5663
lligent	-5664
pressed	-5665
zkowicz	-5666
▁Albuqu	-5667
▁Argent	-5668
▁Creamy	-5669
▁OffApp	-5670
▁Pierce	-5671
▁branch	-5672
▁browse	-5673
▁hiding	-5674
▁letter	-5675
▁nutrit	-5676
▁orient	-5677
▁reform	-5678
▁ticked	-5679
Contests	-5680
Davidson	-5681
Definite	-5682
Deselect	-5683
Discover	-5684
Download	-5685
HEREFORE	-5686
Historic	-5687
Internet	-5688
Japanese	-5689
Military	-5690
PSanders	-5691
Research	-5692
Tomorrow	-5693
Zinzinya	-5694
aboteurs	-5695
aciously	-5696
acuation	-5697
aduation	-5698
alsTexas	-5699
dd	-5700
Pad	-5701
Vir	-5702
adn	-5703
adu	-5704
eag	-5705
gad	-5706
ros	-5707
ump	-5708
yse	-5709
▁AC	-5710
▁Cz	-5711
▁Er	-5712
▁eg	-5713
▁eh	-5714
▁ep	-5715
▁ok	-5716
Virt	-5717
gric	-5718
irch	-5719
ross	-5720
ulos	-5721
ysem	-5722
▁ACR	-5723
▁Car	-5724
▁Cou	-5725
▁Par	-5726
▁Sam	-5727
▁egg	-5728
▁nic	-5729
▁nor	-5730
▁odd	-5731
▁ren	-5732
▁sad	-5733
aggad	-5734
aptiv	-5735
culos	-5736
eague	-5737
gradu	-5738
ysema	-5739
▁ACRL	-5740
▁Bean	-5741
▁Burn	-5742
▁Madn	-5743
▁Much	-5744
▁brad	-5745
▁epic	-5746
▁jump	-5747
▁limo	-5748
▁okay	-5749
▁rena	-5750
atePad	-5751
captiv	-5752
ressed	-5753
▁Agric	-5754
▁Birch	-5755
▁Carib	-5756
▁Coupl	-5757
▁Czech	-5758
▁Erics	-5759
▁Paris	-5760
▁cuten	-5761
▁niche	-5762
▁trial	-5763
Spencer	-5764
Virtual	-5765
aggadoc	-5766
connect	-5767
culosis	-5768
itionEx	-5769
▁ACRLog	-5770
▁across	-5771
▁crazyi	-5772
▁decent	-5773
▁stages	-5774
allation	-5775
aneously	-5776
annehill	-5777
anscript	-5778
aphylact	-5779
auvignon	-5780
ceanshas	-5781
creasing	-5782
deserved	-5783
eanwhile	-5784
eptively	-5785
evolving	-5786
feminist	-5787
ferences	-5788
ficially	-5789
gettable	-5790
graduate	-5791
hensible	-5792
idential	-5793
ificance	-5794
ificates	-5795
inefield	-5796
iratePad	-5797
ispatchA	-5798
isturbed	-5799
CB	-5800
Co	-5801
CBS	-5802
Ost	-5803
arc	-5804
epy	-5805
may	-5806
ram	-5807
▁NA	-5808
▁TO	-5809
▁Ze	-5810
▁gi	-5811
Wall	-5812
bute	-5813
cent	-5814
icut	-5815
▁Che	-5816
▁Men	-5817
▁NAM	-5818
▁led	-5819
Cohen	-5820
andom	-5821
arcia	-5822
maybe	-5823
▁Cere	-5824
▁Prop	-5825
▁chem	-5826
▁garn	-5827
▁glob	-5828
▁type	-5829
Ostens	-5830
escent	-5831
▁Cheap	-5832
▁Menlo	-5833
▁State	-5834
▁giant	-5835
▁globe	-5836
▁uncom	-5837
roposed	-5838
written	-5839
▁Cereal	-5840
▁Fandom	-5841
▁Garcia	-5842
▁creepy	-5843
▁inject	-5844
▁occupy	-5845
▁simple	-5846
▁submit	-5847
▁twenty	-5848
Ostensib	-5849
Proposed	-5850
WeigleyS	-5851
ationing	-5852
lagoster	-5853
levision	-5854
lexander	-5855
literate	-5856
membered	-5857
motional	-5858
necticut	-5859
obbyists	-5860
olescent	-5861
ondition	-5862
original	-5863
ouisiana	-5864
oundland	-5865
pinlight	-5866
piration	-5867
pliments	-5868
plosionT	-5869
pocketed	-5870
pocrates	-5871
possible	-5872
produced	-5873
rawberry	-5874
rumboltz	-5875
sometime	-5876
sonville	-5877
stealing	-5878
straight	-5879
subscrib	-5880
tainment	-5881
terviews	-5882
together	-5883
ubmitted	-5884
ubscribe	-5885
undantly	-5886
uthfully	-5887
witching	-5888
ypically	-5889
▁AfricaI	-5890
▁Alladyn	-5891
▁AlproWe	-5892
▁Appreci	-5893
▁Assault	-5894
▁Average	-5895
▁BarkWeb	-5896
▁Beckham	-5897
▁British	-5898
▁Burnout	-5899
alo	-5900
bre	-5901
fly	-5902
pop	-5903
rob	-5904
▁HB	-5905
▁SJ	-5906
EASE	-5907
Even	-5908
Sing	-5909
alal	-5910
atal	-5911
efly	-5912
etro	-5913
lash	-5914
like	-5915
opEx	-5916
ounc	-5917
pops	-5918
roud	-5919
▁HBO	-5920
▁Ill	-5921
▁Sit	-5922
▁Stu	-5923
▁las	-5924
▁tre	-5925
Flash	-5926
LEASE	-5927
PopEx	-5928
athan	-5929
ionic	-5930
throb	-5931
ugged	-5932
▁Hour	-5933
▁Pond	-5934
▁Save	-5935
▁Shut	-5936
▁Vect	-5937
▁ador	-5938
▁hook	-5939
▁swoo	-5940
▁wood	-5941
PLEASE	-5942
Singap	-5943
aloons	-5944
onatal	-5945
oolery	-5946
otorcy	-5947
ouncil	-5948
riefly	-5949
rugged	-5950
▁Halal	-5951
▁Metro	-5952
▁PondA	-5953
▁Shift	-5954
▁bones	-5955
▁laser	-5956
▁proud	-5957
▁tasty	-5958
▁treas	-5959
▁unfor	-5960
▁woodl	-5961
nothing	-5962
ooAfter	-5963
▁Bionic	-5964
▁Illino	-5965
▁Stuart	-5966
▁anyway	-5967
▁belong	-5968
▁colors	-5969
▁intend	-5970
breaking	-5971
nothings	-5972
▁Butcher	-5973
▁Camping	-5974
▁Caribbe	-5975
▁Catania	-5976
▁Changes	-5977
▁Channel	-5978
▁Chicken	-5979
▁Climate	-5980
▁Contact	-5981
▁Content	-5982
▁Contest	-5983
▁Control	-5984
▁Cooking	-5985
▁Council	-5986
▁Coupled	-5987
▁Crashes	-5988
▁Crayons	-5989
▁Curious	-5990
▁Cyanide	-5991
▁Dagmara	-5992
▁Darrell	-5993
▁Deckelm	-5994
▁Defence	-5995
▁Defense	-5996
▁Deposit	-5997
▁Dominic	-5998
▁Donovan	-5999
HR	-6000
Get	-6001
oda	-6002
wig	-6003
▁Am	-6004
▁Po	-6005
▁au	-6006
▁du	-6007
▁gh	-6008
Yoda	-6009
amew	-6010
ared	-6011
ibil	-6012
iron	-6013
leas	-6014
ngth	-6015
nter	-6016
sequ	-6017
twig	-6018
▁LHR	-6019
▁MeI	-6020
▁Yet	-6021
▁ded	-6022
▁duo	-6023
▁eat	-6024
▁pet	-6025
agedy	-6026
viron	-6027
▁Amid	-6028
▁Clim	-6029
▁Mose	-6030
▁Poor	-6031
▁Soll	-6032
▁acid	-6033
▁bend	-6034
▁hire	-6035
▁hool	-6036
▁mass	-6037
▁shad	-6038
▁shut	-6039
▁thor	-6040
rength	-6041
▁Climb	-6042
▁Enter	-6043
▁Wayne	-6044
▁ghost	-6045
▁hired	-6046
▁swamp	-6047
amework	-6048
sequent	-6049
▁Clarke	-6050
▁Solley	-6051
▁accuse	-6052
▁combin	-6053
▁hoolig	-6054
▁origin	-6055
▁petite	-6056
ankering	-6057
ingering	-6058
leasable	-6059
▁Dunkirk	-6060
▁Edition	-6061
▁Empathy	-6062
▁Empower	-6063
▁Explore	-6064
▁Farrell	-6065
▁Feature	-6066
▁Georgia	-6067
▁Hackath	-6068
▁Hacking	-6069
▁Hanging	-6070
▁Hardage	-6071
▁Heights	-6072
▁Herbert	-6073
▁Hoffman	-6074
▁Hunting	-6075
▁Inbound	-6076
▁Indiana	-6077
▁Jeremia	-6078
▁Lautner	-6079
▁Leading	-6080
▁Madness	-6081
▁Malcolm	-6082
▁Myanmar	-6083
▁Objects	-6084
▁Opinion	-6085
▁Optimum	-6086
▁Options	-6087
▁Package	-6088
▁Partner	-6089
▁Patrick	-6090
▁Perfect	-6091
▁Pitfall	-6092
▁PondAlp	-6093
▁Privacy	-6094
▁Quinton	-6095
▁Readers	-6096
▁SCHRAMM	-6097
▁Sanator	-6098
▁Session	-6099
ai	-6100
td	-6101
Who	-6102
ask	-6103
asp	-6104
cel	-6105
dom	-6106
▁af	-6107
enry	-6108
itig	-6109
must	-6110
qual	-6111
wide	-6112
▁God	-6113
▁Ltd	-6114
▁Sad	-6115
▁Won	-6116
▁hor	-6117
▁rou	-6118
▁sep	-6119
iring	-6120
orted	-6121
▁Fest	-6122
▁Gold	-6123
▁Patt	-6124
▁Thai	-6125
▁afra	-6126
▁boot	-6127
▁cows	-6128
▁hate	-6129
▁lock	-6130
▁ploy	-6131
▁repe	-6132
▁task	-6133
▁wife	-6134
anding	-6135
astate	-6136
utions	-6137
▁Henry	-6138
▁Novel	-6139
▁QFred	-6140
▁Sadie	-6141
▁broke	-6142
▁equal	-6143
▁grasp	-6144
▁horiz	-6145
▁litig	-6146
▁oryou	-6147
▁route	-6148
▁separ	-6149
Carlton	-6150
owRadio	-6151
vastate	-6152
▁Hiring	-6153
▁afraid	-6154
▁bootle	-6155
▁collar	-6156
▁eating	-6157
▁editor	-6158
▁gasped	-6159
▁parcel	-6160
▁payday	-6161
▁retrac	-6162
andscape	-6163
▁Anatomy	-6164
▁Spokane	-6165
▁Staffed	-6166
▁Stewart	-6167
▁Storage	-6168
▁Studies	-6169
▁Success	-6170
▁Suicide	-6171
▁Surgery	-6172
▁Thanksg	-6173
▁Thrones	-6174
▁Trekker	-6175
▁Turning	-6176
▁Utopian	-6177
▁Vectors	-6178
▁Visitor	-6179
▁Walking	-6180
▁Whether	-6181
▁Wickham	-6182
▁Winners	-6183
▁Writers	-6184
▁Writing	-6185
▁Written	-6186
▁Zachary	-6187
▁absence	-6188
▁absense	-6189
▁acquire	-6190
▁actions	-6191
▁adopted	-6192
▁advance	-6193
▁alchemy	-6194
▁amateur	-6195
▁answers	-6196
▁archive	-6197
▁article	-6198
▁asinine	-6199
%-	-6200
'.	-6201
Ho	-6202
MF	-6203
PN	-6204
fo	-6205
▁,	-6206
Dow	-6207
Hob	-6208
SPN	-6209
azi	-6210
▁:)	-6211
▁IE	-6212
Holy	-6213
Tour	-6214
edim	-6215
esky	-6216
lenn	-6217
otom	-6218
star	-6219
▁Est	-6220
▁IEP	-6221
▁IMF	-6222
▁Mac	-6223
▁Sec	-6224
▁Sis	-6225
▁ash	-6226
▁daz	-6227
▁mis	-6228
Glenn	-6229
Hobie	-6230
Pesky	-6231
apman	-6232
arter	-6233
aters	-6234
gency	-6235
ghazi	-6236
yhood	-6237
▁ESPN	-6238
▁Oper	-6239
▁Sisi	-6240
▁Ways	-6241
▁daze	-6242
▁heck	-6243
▁info	-6244
▁misu	-6245
▁mund	-6246
▁neat	-6247
▁path	-6248
Dowell	-6249
acking	-6250
ighted	-6251
rouble	-6252
▁Coast	-6253
▁Cohes	-6254
▁Speak	-6255
▁align	-6256
▁homey	-6257
▁reson	-6258
▁rotom	-6259
▁sedim	-6260
▁sting	-6261
abyhood	-6262
arterly	-6263
ectator	-6264
imately	-6265
▁Esther	-6266
▁crispy	-6267
▁erases	-6268
▁overse	-6269
▁sendup	-6270
▁server	-6271
▁tender	-6272
▁Balance	-6273
▁Chapman	-6274
▁Secular	-6275
▁Stephen	-6276
▁average	-6277
▁banging	-6278
▁belated	-6279
▁biggest	-6280
▁birches	-6281
▁bizarre	-6282
▁boyhood	-6283
▁breadth	-6284
▁brewery	-6285
▁briefly	-6286
▁buddies	-6287
▁catalog	-6288
▁central	-6289
▁charged	-6290
▁chasing	-6291
▁claimed	-6292
▁classes	-6293
▁cleared	-6294
▁closest	-6295
▁clothes	-6296
▁colours	-6297
▁continu	-6298
▁contrad	-6299
/”	-6300
En	-6301
LY	-6302
Su	-6303
ba	-6304
gu	-6305
ps	-6306
Did	-6307
NLY	-6308
iob	-6309
ita	-6310
iti	-6311
”/”	-6312
▁Up	-6313
▁WS	-6314
alyz	-6315
eaks	-6316
ello	-6317
leep	-6318
otic	-6319
▁Lin	-6320
▁Nur	-6321
▁Pon	-6322
▁WSU	-6323
▁sit	-6324
▁val	-6325
Enjoy	-6326
Found	-6327
Hello	-6328
Super	-6329
acamp	-6330
cause	-6331
ineer	-6332
inted	-6333
udiob	-6334
▁Geba	-6335
▁Hits	-6336
▁Horn	-6337
▁LEFT	-6338
▁Nive	-6339
▁ONLY	-6340
▁Reub	-6341
▁Vita	-6342
▁hurt	-6343
▁valu	-6344
Source	-6345
acampd	-6346
ainiti	-6347
alyzed	-6348
gineer	-6349
guided	-6350
ipples	-6351
quency	-6352
▁Adver	-6353
▁Danna	-6354
▁Horne	-6355
▁Linux	-6356
▁Nivea	-6357
▁Nuria	-6358
▁Other	-6359
▁Peaks	-6360
▁Ponce	-6361
▁Sleep	-6362
▁Super	-6363
▁Terms	-6364
▁famil	-6365
▁heads	-6366
▁lunch	-6367
▁props	-6368
Founded	-6369
acampdc	-6370
▁Redman	-6371
▁Reuben	-6372
▁Select	-6373
▁Tender	-6374
▁audiob	-6375
▁exotic	-6376
▁hinted	-6377
▁integr	-6378
▁remind	-6379
adainiti	-6380
▁Editing	-6381
▁Superin	-6382
▁counted	-6383
▁crafted	-6384
▁crushed	-6385
▁cushion	-6386
▁dealing	-6387
▁decades	-6388
▁degrees	-6389
▁delicac	-6390
▁demands	-6391
▁despise	-6392
▁despite	-6393
▁digging	-6394
▁digital	-6395
▁dormant	-6396
▁driving	-6397
▁elderly	-6398
▁elegant	-6399
%,	-6400
za	-6401
Fou	-6402
din	-6403
enl	-6404
lin	-6405
Brit	-6406
Trek	-6407
cogs	-6408
echm	-6409
imed	-6410
izza	-6411
orce	-6412
orps	-6413
ukCh	-6414
uled	-6415
▁Det	-6416
▁Jos	-6417
▁Map	-6418
▁Nom	-6419
▁Osm	-6420
▁Sus	-6421
▁sou	-6422
▁wed	-6423
amour	-6424
eavor	-6425
elina	-6426
enlia	-6427
iment	-6428
quins	-6429
ravel	-6430
▁Josh	-6431
▁role	-6432
▁shen	-6433
▁soul	-6434
amless	-6435
echmem	-6436
enberg	-6437
essors	-6438
giment	-6439
ivorce	-6440
making	-6441
osophy	-6442
tering	-6443
▁Atari	-6444
▁Joshu	-6445
▁Nomad	-6446
▁aimed	-6447
▁corps	-6448
▁pizza	-6449
▁plann	-6450
▁shown	-6451
▁teens	-6452
▁unden	-6453
Britain	-6454
Founder	-6455
echmeme	-6456
ngelina	-6457
sharing	-6458
▁Joshua	-6459
▁Osmond	-6460
▁dishes	-6461
▁splits	-6462
▁undeni	-6463
Angelina	-6464
anything	-6465
ilosophy	-6466
indenlia	-6467
isenberg	-6468
raveling	-6469
▁Divorce	-6470
▁Markers	-6471
▁Nomadic	-6472
▁Suspect	-6473
▁emerged	-6474
▁engaged	-6475
▁erasers	-6476
▁example	-6477
▁experts	-6478
▁fanfare	-6479
▁flavour	-6480
▁foiling	-6481
▁foliage	-6482
▁footage	-6483
▁fraught	-6484
▁gambits	-6485
▁garment	-6486
▁glamour	-6487
▁grabbed	-6488
▁granted	-6489
▁greeted	-6490
▁haunted	-6491
▁helmets	-6492
▁hideous	-6493
▁hitting	-6494
▁horrors	-6495
▁hunting	-6496
▁ideolog	-6497
▁imagine	-6498
▁inbound	-6499
BW	-6500
DC	-6501
Ed	-6502
Sk	-6503
YB	-6504
YO	-6505
EYO	-6506
ule	-6507
zes	-6508
▁pm	-6509
▁ti	-6510
arfs	-6511
udio	-6512
▁ABW	-6513
▁Mao	-6514
▁tro	-6515
▁unb	-6516
EYOND	-6517
YBald	-6518
allas	-6519
rizes	-6520
warfs	-6521
▁Able	-6522
▁Ital	-6523
▁Jack	-6524
▁Self	-6525
▁Uber	-6526
▁load	-6527
▁unbi	-6528
SECOND	-6529
Skiing	-6530
enture	-6531
letion	-6532
▁Audio	-6533
▁Champ	-6534
▁Towns	-6535
▁Union	-6536
▁loads	-6537
▁revel	-6538
▁troll	-6539
Rapping	-6540
Twitter	-6541
▁BEYOND	-6542
▁Dallas	-6543
▁Dwarfs	-6544
▁Mosaic	-6545
▁Prizes	-6546
▁attach	-6547
▁recept	-6548
▁speech	-6549
appening	-6550
renYBald	-6551
▁Italian	-6552
▁Winston	-6553
▁booklet	-6554
▁confess	-6555
▁efforts	-6556
▁empower	-6557
▁evening	-6558
▁intends	-6559
▁intimid	-6560
▁intrigu	-6561
▁intrins	-6562
▁invites	-6563
▁joining	-6564
▁judging	-6565
▁leaving	-6566
▁letters	-6567
▁library	-6568
▁lightsw	-6569
▁limited	-6570
▁lockers	-6571
▁manages	-6572
▁mapping	-6573
▁matches	-6574
▁methods	-6575
▁missing	-6576
▁moreAir	-6577
▁motorcy	-6578
▁mounted	-6579
▁natural	-6580
▁noticed	-6581
▁nursing	-6582
▁obscure	-6583
▁offense	-6584
▁opinion	-6585
▁options	-6586
▁origins	-6587
▁outdoor	-6588
▁pastors	-6589
▁payment	-6590
▁planets	-6591
▁plodded	-6592
▁politic	-6593
▁popping	-6594
▁powered	-6595
▁priorit	-6596
▁private	-6597
▁process	-6598
▁prodded	-6599
._	-6600
Do	-6601
UN	-6602
ta	-6603
Mis	-6604
UNK	-6605
aed	-6606
ede	-6607
ode	-6608
oon	-6609
ply	-6610
▁Ul	-6611
Miso	-6612
More	-6613
aeda	-6614
llor	-6615
rock	-6616
time	-6617
▁civ	-6618
▁lic	-6619
▁sat	-6620
entor	-6621
grade	-6622
iming	-6623
mentA	-6624
meted	-6625
onade	-6626
oston	-6627
roduc	-6628
ushum	-6629
▁Dong	-6630
▁FUNK	-6631
▁clue	-6632
▁code	-6633
▁dark	-6634
▁plug	-6635
▁trap	-6636
Always	-6637
Produc	-6638
anches	-6639
bating	-6640
oating	-6641
▁Clues	-6642
▁Qaeda	-6643
▁apple	-6644
▁civil	-6645
▁clean	-6646
▁cliff	-6647
▁gotta	-6648
antment	-6649
emonade	-6650
ranging	-6651
ummeted	-6652
ushumor	-6653
▁Boston	-6654
▁bright	-6655
▁cotton	-6656
▁excuse	-6657
▁licens	-6658
▁mentor	-6659
▁secede	-6660
▁simply	-6661
▁subter	-6662
▁timing	-6663
ancellor	-6664
essional	-6665
▁Germans	-6666
▁Realtor	-6667
▁affairs	-6668
▁cleanup	-6669
▁delight	-6670
▁discuss	-6671
▁environ	-6672
▁plugins	-6673
▁promote	-6674
▁protege	-6675
▁purists	-6676
▁purview	-6677
▁pyramid	-6678
▁raising	-6679
▁realize	-6680
▁receive	-6681
▁reflect	-6682
▁registr	-6683
▁removed	-6684
▁renaiss	-6685
▁renewed	-6686
▁restaur	-6687
▁retains	-6688
▁retreat	-6689
▁reviews	-6690
▁revised	-6691
▁ruffled	-6692
▁schools	-6693
▁scooter	-6694
▁scratch	-6695
▁screams	-6696
▁scrumpt	-6697
▁seconds	-6698
▁section	-6699
,)	-6700
To	-6701
AEU	-6702
Cal	-6703
Dri	-6704
Jud	-6705
dep	-6706
ela	-6707
ibe	-6708
ucy	-6709
Have	-6710
Last	-6711
Life	-6712
asic	-6713
grow	-6714
itar	-6715
izes	-6716
this	-6717
▁Mem	-6718
▁ain	-6719
▁beg	-6720
Basic	-6721
Dried	-6722
areer	-6723
steam	-6724
uiser	-6725
▁Cari	-6726
▁Conn	-6727
▁Holl	-6728
▁Lucy	-6729
▁Memo	-6730
▁Moss	-6731
▁reac	-6732
▁rush	-6733
▁scoo	-6734
▁vibe	-6735
Career	-6736
Lastly	-6737
elaide	-6738
should	-6739
▁Bonus	-6740
▁XXXXF	-6741
▁begun	-6742
▁chest	-6743
▁crush	-6744
▁disco	-6745
▁guest	-6746
▁raise	-6747
▁rober	-6748
▁scoop	-6749
▁thats	-6750
▁vivid	-6751
Judging	-6752
ongress	-6753
▁Connie	-6754
▁George	-6755
▁charac	-6756
▁guitar	-6757
▁puzzle	-6758
▁secret	-6759
▁sought	-6760
▁theAEU	-6761
▁toward	-6762
roughout	-6763
▁Holland	-6764
▁Riordan	-6765
▁bruiser	-6766
▁effects	-6767
▁heading	-6768
▁herding	-6769
▁sectors	-6770
▁selling	-6771
▁settled	-6772
▁shadows	-6773
▁shelves	-6774
▁sleeper	-6775
▁society	-6776
▁sprayed	-6777
▁storage	-6778
▁strateg	-6779
▁strokes	-6780
▁subterr	-6781
▁swampif	-6782
▁sweethe	-6783
▁swooped	-6784
▁sympath	-6785
▁tableau	-6786
▁talking	-6787
▁tangled	-6788
▁targets	-6789
▁teacher	-6790
▁thrills	-6791
▁tonight	-6792
▁topping	-6793
▁touched	-6794
▁tragedy	-6795
▁tribute	-6796
▁trigger	-6797
▁trouble	-6798
▁tweeted	-6799
.|	-6800
??	-6801
Ba	-6802
Ev	-6803
Le	-6804
!).	-6805
Des	-6806
see	-6807
▁SO	-6808
icit	-6809
iley	-6810
itan	-6811
lesh	-6812
oing	-6813
town	-6814
▁Bak	-6815
▁Bet	-6816
▁Fut	-6817
▁Nov	-6818
▁fop	-6819
▁ins	-6820
▁por	-6821
Amend	-6822
Evans	-6823
▁Main	-6824
▁SOCO	-6825
▁cart	-6826
▁mish	-6827
▁near	-6828
▁note	-6829
▁warm	-6830
▁wear	-6831
Bailey	-6832
Series	-6833
Spokes	-6834
ifling	-6835
itanic	-6836
marish	-6837
warded	-6838
▁Flesh	-6839
▁Going	-6840
▁SOCOM	-6841
▁comed	-6842
▁delay	-6843
▁funny	-6844
Leonard	-6845
Spokesm	-6846
earning	-6847
fensive	-6848
ividing	-6849
usement	-6850
▁Bakery	-6851
▁Entail	-6852
▁cannot	-6853
▁comics	-6854
▁confus	-6855
▁crying	-6856
▁mishit	-6857
▁plants	-6858
▁repugn	-6859
▁slight	-6860
▁stated	-6861
▁strung	-6862
▁voiced	-6863
irectory	-6864
thinking	-6865
▁Between	-6866
▁Entails	-6867
▁Futures	-6868
▁Titanic	-6869
▁crusade	-6870
▁finally	-6871
▁interim	-6872
▁mundane	-6873
▁twosome	-6874
▁unfolds	-6875
▁unleash	-6876
▁upgrade	-6877
▁vehicle	-6878
▁venture	-6879
▁violent	-6880
▁watched	-6881
▁wedding	-6882
▁workers	-6883
▁zipping	-6884
AdaCampDC	-6885
Adventure	-6886
Alexander	-6887
Comparing	-6888
Directory	-6889
Exclusive	-6890
Invisible	-6891
Meanwhile	-6892
MeatWorks	-6893
Northwest	-6894
Postcards	-6895
Powerball	-6896
Producing	-6897
Reporting	-6898
Rewarding	-6899
?”	-6900
fi	-6901
’,	-6902
’-	-6903
”!	-6904
FBI	-6905
met	-6906
▁LP	-6907
▁om	-6908
▁ou	-6909
▁pp	-6910
Much	-6911
ears	-6912
elen	-6913
ffic	-6914
inqu	-6915
iors	-6916
ntly	-6917
then	-6918
▁Ole	-6919
▁Van	-6920
▁awh	-6921
▁hop	-6922
▁spa	-6923
▁tab	-6924
Activ	-6925
acier	-6926
elena	-6927
osive	-6928
terst	-6929
▁Shre	-6930
▁born	-6931
▁elev	-6932
▁fats	-6933
▁quot	-6934
▁ways	-6935
AISFor	-6936
Weight	-6937
allies	-6938
isible	-6939
istent	-6940
ngthen	-6941
suffic	-6942
▁Bears	-6943
▁Blind	-6944
▁Books	-6945
▁Calif	-6946
▁antio	-6947
▁bears	-6948
▁curls	-6949
▁flash	-6950
▁grown	-6951
▁omiss	-6952
▁ought	-6953
▁pages	-6954
▁paris	-6955
acteria	-6956
arching	-6957
inquish	-6958
▁ISRAEL	-6959
▁Selena	-6960
▁Shreve	-6961
▁antiox	-6962
▁awhile	-6963
▁buried	-6964
▁guides	-6965
▁hoping	-6966
▁quoted	-6967
▁racier	-6968
▁reeval	-6969
▁skills	-6970
▁tables	-6971
Activate	-6972
rievable	-6973
terstock	-6974
▁Smarter	-6975
▁creates	-6976
▁despoil	-6977
▁existed	-6978
▁nipples	-6979
▁rallies	-6980
▁risible	-6981
▁scenery	-6982
▁singing	-6983
▁summing	-6984
Scattered	-6985
Singapore	-6986
Spokesmen	-6987
Submitted	-6988
THEREFORE	-6989
Thrashman	-6990
_________	-6991
absPolice	-6992
adacampdc	-6993
adulatory	-6994
aggadocio	-6995
alkingdom	-6996
antaloons	-6997
apsulates	-6998
basically	-6999
'?	-7000
?\"	-7001
Mon	-7002
can	-7003
itn	-7004
oyd	-7005
▁Fa	-7006
▁My	-7007
▁sm	-7008
FOPS	-7009
Iron	-7010
anta	-7011
atre	-7012
erit	-7013
iebe	-7014
ilyn	-7015
quir	-7016
xOxO	-7017
▁"'?	-7018
▁Dyn	-7019
▁Far	-7020
▁Net	-7021
▁Ops	-7022
▁nap	-7023
Later	-7024
Niebe	-7025
Until	-7026
ament	-7027
erail	-7028
iseed	-7029
itney	-7030
▁Cate	-7031
▁DynC	-7032
▁Joel	-7033
▁Live	-7034
▁Toky	-7035
▁Work	-7036
▁hadn	-7037
▁seed	-7038
Monday	-7039
iction	-7040
▁Categ	-7041
▁Faith	-7042
▁Floyd	-7043
▁Tokyo	-7044
▁asked	-7045
▁drama	-7046
▁graph	-7047
▁humor	-7048
▁leans	-7049
▁merit	-7050
▁pursu	-7051
▁simul	-7052
▁smelt	-7053
quiries	-7054
ushroom	-7055
▁Author	-7056
▁Farmer	-7057
▁Series	-7058
▁Stands	-7059
▁Wheels	-7060
▁Whites	-7061
▁derail	-7062
▁finest	-7063
▁jitney	-7064
▁limits	-7065
gingIron	-7066
votional	-7067
▁Atlanta	-7068
▁DynCorp	-7069
▁Marilyn	-7070
▁Rihanna	-7071
▁Theatre	-7072
▁aniseed	-7073
▁entered	-7074
▁fiction	-7075
▁planted	-7076
▁pursued	-7077
astectomy	-7078
chantment	-7079
departure	-7080
emberGive	-7081
emorating	-7082
entatives	-7083
erculosis	-7084
formation	-7085
foundland	-7086
ibilities	-7087
ifference	-7088
imprecise	-7089
infection	-7090
insonNext	-7091
irthplace	-7092
itionally	-7093
lagostera	-7094
lectronic	-7095
lindenlia	-7096
mospheric	-7097
neighbors	-7098
ortalized	-7099
df	-7100
)\"	-7101
Yes	-7102
cer	-7103
lls	-7104
oud	-7105
aned	-7106
ilst	-7107
loud	-7108
opia	-7109
pans	-7110
sure	-7111
▁Bad	-7112
▁Lee	-7113
▁ais	-7114
▁gig	-7115
▁lib	-7116
▁pdf	-7117
House	-7118
aries	-7119
estic	-7120
occer	-7121
▁Cash	-7122
▁Chat	-7123
▁Fore	-7124
▁Rick	-7125
▁Seek	-7126
▁evil	-7127
▁eyes	-7128
▁gill	-7129
▁ride	-7130
Contin	-7131
Housew	-7132
athPat	-7133
elling	-7134
ionYes	-7135
issors	-7136
jestic	-7137
leaned	-7138
urnish	-7139
utopia	-7140
▁Games	-7141
▁Using	-7142
▁Wants	-7143
▁dolls	-7144
▁fight	-7145
▁guess	-7146
▁miles	-7147
ajestic	-7148
pansion	-7149
▁Badass	-7150
▁McGraw	-7151
▁Seeker	-7152
▁Soccer	-7153
▁System	-7154
▁Tennis	-7155
▁aisfor	-7156
▁assure	-7157
▁doubts	-7158
▁ensure	-7159
▁libert	-7160
▁neighb	-7161
▁proven	-7162
▁sermon	-7163
▁utopia	-7164
▁whilst	-7165
Continue	-7166
▁Foreign	-7167
▁beating	-7168
▁benefit	-7169
▁furnish	-7170
▁gleaned	-7171
▁outloud	-7172
▁overlap	-7173
▁workshe	-7174
ouncement	-7175
oundaries	-7176
plosionTR	-7177
quiredHow	-7178
reatening	-7179
rehensive	-7180
scalation	-7181
technical	-7182
temporary	-7183
teractive	-7184
ublishers	-7185
ublishing	-7186
ufacturer	-7187
ushumorad	-7188
veillance	-7189
zpiecznik	-7190
▁Adelaide	-7191
▁Advanced	-7192
▁Although	-7193
▁Approved	-7194
▁Archives	-7195
▁Articles	-7196
▁Assaults	-7197
▁Bacteria	-7198
▁Benefits	-7199
Dar	-7200
Tag	-7201
ban	-7202
edi	-7203
nul	-7204
Game	-7205
Heck	-7206
emet	-7207
ungh	-7208
▁Ber	-7209
▁Lil	-7210
▁ban	-7211
▁cob	-7212
▁jov	-7213
▁sci	-7214
aming	-7215
anean	-7216
ulter	-7217
ungho	-7218
▁Jedi	-7219
▁Sier	-7220
▁grab	-7221
▁roof	-7222
▁wall	-7223
Hiking	-7224
atedly	-7225
aulter	-7226
banese	-7227
ollege	-7228
ragnul	-7229
▁blues	-7230
▁cemet	-7231
▁cobwe	-7232
▁imper	-7233
▁skinn	-7234
Adopted	-7235
Stories	-7236
college	-7237
fragnul	-7238
icality	-7239
▁Berard	-7240
▁Gaming	-7241
▁Sierra	-7242
▁bluesy	-7243
▁gungho	-7244
▁jovial	-7245
▁played	-7246
▁rockin	-7247
▁stands	-7248
▁Berardi	-7249
▁Dancing	-7250
▁Vaulter	-7251
▁booster	-7252
▁capital	-7253
▁cobwebs	-7254
▁skinned	-7255
▁Benghazi	-7256
▁Blackmon	-7257
▁Boarding	-7258
▁Branigan	-7259
▁Brownell	-7260
▁CREATION	-7261
▁Canadian	-7262
▁Caroline	-7263
▁Category	-7264
▁Catoctin	-7265
▁Champion	-7266
▁Christop	-7267
▁Circuits	-7268
▁Climbing	-7269
▁Cohesion	-7270
▁Comeback	-7271
▁Computer	-7272
▁Congress	-7273
▁Contents	-7274
▁Contests	-7275
▁Critical	-7276
▁Daughter	-7277
▁DeathPat	-7278
▁December	-7279
▁Designer	-7280
▁Detailed	-7281
▁Diminish	-7282
▁Dynamics	-7283
▁Ericsson	-7284
▁European	-7285
▁Feminism	-7286
▁Feminist	-7287
▁Festival	-7288
▁Foxworth	-7289
▁Franklin	-7290
▁GiftBack	-7291
▁Gramercy	-7292
▁Hillsong	-7293
▁Honestly	-7294
▁HooAfter	-7295
▁Illinois	-7296
▁Interest	-7297
▁Internet	-7298
▁Jeremiah	-7299
%.	-7300
'"}	-7301
\".	-7302
ium	-7303
▁"}	-7304
▁"‘	-7305
▁vs	-7306
.."}	-7307
aily	-7308
bage	-7309
ctor	-7310
life	-7311
onda	-7312
scan	-7313
umer	-7314
umes	-7315
▁Pad	-7316
▁exs	-7317
▁lif	-7318
▁phr	-7319
alias	-7320
ients	-7321
ightm	-7322
letic	-7323
▁Call	-7324
▁East	-7325
▁Fast	-7326
▁High	-7327
▁Join	-7328
▁Link	-7329
▁Many	-7330
▁Rack	-7331
▁Tags	-7332
▁Vict	-7333
▁lack	-7334
▁mile	-7335
eneral	-7336
hletic	-7337
outine	-7338
ucated	-7339
▁Check	-7340
▁Exhib	-7341
▁Honda	-7342
▁Right	-7343
▁Story	-7344
▁daily	-7345
▁lifet	-7346
▁moreT	-7347
▁prose	-7348
▁sight	-7349
ighting	-7350
ostumes	-7351
▁Doctor	-7352
▁Paddle	-7353
▁StoryI	-7354
▁Syrian	-7355
▁Victor	-7356
▁hippie	-7357
▁moreTr	-7358
▁nailed	-7359
▁outfit	-7360
▁phrase	-7361
Aeolidia	-7362
educated	-7363
esterday	-7364
ightmare	-7365
outinely	-7366
▁General	-7367
▁Smalein	-7368
▁clients	-7369
▁enforce	-7370
▁exsists	-7371
▁farmers	-7372
▁garbage	-7373
▁mileage	-7374
▁nations	-7375
▁Jonathan	-7376
▁Karolina	-7377
▁Labrador	-7378
▁Learning	-7379
▁Lebanese	-7380
▁Lemonade	-7381
▁Maryland	-7382
▁McDowell	-7383
▁Memorial	-7384
▁Michmash	-7385
▁Motoring	-7386
▁Mushroom	-7387
▁November	-7388
▁OffApply	-7389
▁PILGRIMS	-7390
▁Paolucci	-7391
▁Patterns	-7392
▁Planning	-7393
▁Podcasts	-7394
▁PostLink	-7395
▁PostsThe	-7396
▁Previous	-7397
▁Pulitzer	-7398
▁Regiment	-7399
Ent	-7400
kee	-7401
Come	-7402
East	-7403
Past	-7404
aber	-7405
date	-7406
ison	-7407
more	-7408
past	-7409
ulus	-7410
▁Ell	-7411
▁Eth	-7412
▁Eve	-7413
▁Get	-7414
▁Jer	-7415
▁Sir	-7416
▁Tus	-7417
▁map	-7418
▁mud	-7419
▁pse	-7420
▁tun	-7421
ACPSk	-7422
Happy	-7423
ected	-7424
eregr	-7425
icate	-7426
minal	-7427
ndeed	-7428
quest	-7429
restr	-7430
stage	-7431
▁Home	-7432
▁Leon	-7433
▁Lone	-7434
▁Long	-7435
▁Most	-7436
▁Tusk	-7437
▁bast	-7438
▁cert	-7439
▁cham	-7440
▁cite	-7441
▁east	-7442
▁hero	-7443
▁host	-7444
▁sake	-7445
▁thus	-7446
Indeed	-7447
Pastor	-7448
artkee	-7449
imulus	-7450
ortion	-7451
▁Caber	-7452
▁Chips	-7453
▁Ellie	-7454
▁Email	-7455
▁Sirlo	-7456
▁depth	-7457
▁fully	-7458
▁hosts	-7459
▁mater	-7460
▁setup	-7461
▁tuned	-7462
Entries	-7463
arnival	-7464
veryone	-7465
▁Emails	-7466
▁Jersey	-7467
▁Peregr	-7468
▁humans	-7469
▁writes	-7470
Carnival	-7471
Everyone	-7472
▁Allison	-7473
▁Cartkee	-7474
▁Ethical	-7475
▁Sirloin	-7476
▁anymore	-7477
▁buzzing	-7478
▁chamber	-7479
▁channel	-7480
▁portion	-7481
▁request	-7482
▁unreach	-7483
▁unrestr	-7484
mentation	-7485
▁Cabernet	-7486
▁Discount	-7487
▁Releases	-7488
▁Remember	-7489
▁Returned	-7490
▁Reverend	-7491
▁ReviewAs	-7492
▁Robinson	-7493
▁Saturday	-7494
▁Scamming	-7495
▁Schiller	-7496
▁Scissors	-7497
▁Segments	-7498
▁Services	-7499
▁”	-7500
Yep	-7501
oke	-7502
Cart	-7503
Rook	-7504
aine	-7505
earn	-7506
idly	-7507
reek	-7508
ture	-7509
usty	-7510
▁Hun	-7511
▁Yay	-7512
▁fax	-7513
▁hab	-7514
▁ske	-7515
▁sun	-7516
Learn	-7517
ancer	-7518
artin	-7519
beare	-7520
nings	-7521
ooked	-7522
pling	-7523
▁Dean	-7524
▁Hook	-7525
▁cook	-7526
▁fine	-7527
▁shoc	-7528
▁snow	-7529
▁tomb	-7530
▁worn	-7531
bearer	-7532
cancer	-7533
filled	-7534
oundup	-7535
▁Basec	-7536
▁Creek	-7537
▁Docum	-7538
▁Molly	-7539
▁Shang	-7540
▁acute	-7541
▁anime	-7542
▁aside	-7543
▁evoke	-7544
▁skept	-7545
▁worse	-7546
Rookies	-7547
aneCart	-7548
perture	-7549
▁Blaine	-7550
▁Hunter	-7551
▁Martin	-7552
▁agenda	-7553
▁habits	-7554
▁mouths	-7555
▁passes	-7556
▁trusty	-7557
rappling	-7558
▁Roundup	-7559
▁Shangri	-7560
▁WantedI	-7561
▁acutely	-7562
▁highway	-7563
▁holding	-7564
▁ranking	-7565
▁rapidly	-7566
▁readers	-7567
▁willing	-7568
Ethiopian	-7569
versation	-7570
▁Aperture	-7571
▁Basecamp	-7572
▁Cardinal	-7573
▁Sleeping	-7574
▁Snapshot	-7575
▁Solution	-7576
▁Speakers	-7577
▁Spending	-7578
▁Standing	-7579
▁StarTrek	-7580
▁Stephens	-7581
▁Strength	-7582
▁Survival	-7583
▁Swimming	-7584
▁Techmeme	-7585
▁Tendency	-7586
▁Thatcher	-7587
▁Thinking	-7588
▁Together	-7589
▁Twisters	-7590
▁Ultimate	-7591
▁Unfortun	-7592
▁Violence	-7593
▁Visitors	-7594
▁Webinars	-7595
▁Westbury	-7596
▁WordCamp	-7597
▁YowRadio	-7598
▁academic	-7599
ON	-7600
sy	-7601
log	-7602
ogh	-7603
▁PP	-7604
▁US	-7605
Dear	-7606
Five	-7607
Live	-7608
When	-7609
eyer	-7610
post	-7611
quar	-7612
take	-7613
vant	-7614
ypsy	-7615
▁Cut	-7616
▁ION	-7617
▁Jak	-7618
▁Jol	-7619
▁Occ	-7620
▁bye	-7621
▁div	-7622
▁sew	-7623
▁shy	-7624
Could	-7625
idant	-7626
ocket	-7627
teach	-7628
▁Beer	-7629
▁Burt	-7630
▁Gogh	-7631
▁Gord	-7632
▁PPHM	-7633
▁Want	-7634
▁Will	-7635
▁core	-7636
▁dish	-7637
▁dors	-7638
▁spot	-7639
▁stom	-7640
▁vary	-7641
▁	-7642
e	-7643
t	-7644
a	-7645
o	-7646
i	-7647
n	-7648
s	-7649
r	-7650
h	-7651
l	-7652
d	-7653
u	-7654
c	-7655
m	-7656
g	-7657
f	-7658
p	-7659
y	-7660
w	-7661
b	-7662
.	-7663
,	-7664
v	-7665
k	-7666
I	-7667
T	-7668
S	-7669
"	-7670
A	-7671
C	-7672
x	-7673
’	-7674
P	-7675
-	-7676
0	-7677
B	-7678
:	-7679
M	-7680
1	-7681
D	-7682
H	-7683
L	-7684
W	-7685
F	-7686
2	-7687
R	-7688
'	-7689
O	-7690
N	-7691
E	-7692
j	-7693
!	-7694
G	-7695
Y	-7696
\	-7697
(	-7698
)	-7699
{	-7700
}	-7701
3	-7702
z	-7703
9	-7704
J	-7705
6	-7706
4	-7707
_	-7708
U	-7709
q	-7710
8	-7711
”	-7712
5	-7713
“	-7714
V	-7715
K	-7716
7	-7717
?	-7718
$	-7719
|	-7720
–	-7721
‘	-7722
;	-7723
X	-7724
[	-7725
Q	-7726
]	-7727
/	-7728
·	-7729
&	-7730
%	-7731
@	-7732
Z	-7733
—	-7734
